{
  "<PAD>": 0,
  "<UNK>": 1,
  "<BOS>": 2,
  "<EOS>": 3,
  "\"": 4,
  "#": 5,
  "'": 6,
  "(": 7,
  ")": 8,
  ",": 9,
  "-": 10,
  ".": 11,
  "/": 12,
  "0": 13,
  "1": 14,
  "2": 15,
  "5": 16,
  "9": 17,
  ":": 18,
  ";": 19,
  "<": 20,
  "=": 21,
  ">": 22,
  "A": 23,
  "B": 24,
  "C": 25,
  "D": 26,
  "E": 27,
  "F": 28,
  "G": 29,
  "H": 30,
  "I": 31,
  "J": 32,
  "K": 33,
  "L": 34,
  "M": 35,
  "N": 36,
  "O": 37,
  "P": 38,
  "Q": 39,
  "R": 40,
  "S": 41,
  "T": 42,
  "U": 43,
  "V": 44,
  "W": 45,
  "Y": 46,
  "[": 47,
  "]": 48,
  "_": 49,
  "a": 50,
  "b": 51,
  "c": 52,
  "d": 53,
  "e": 54,
  "f": 55,
  "g": 56,
  "h": 57,
  "i": 58,
  "j": 59,
  "k": 60,
  "l": 61,
  "m": 62,
  "n": 63,
  "o": 64,
  "p": 65,
  "q": 66,
  "r": 67,
  "s": 68,
  "t": 69,
  "u": 70,
  "v": 71,
  "w": 72,
  "x": 73,
  "y": 74,
  "z": 75,
  "Ç": 76,
  "Ö": 77,
  "ç": 78,
  "ö": 79,
  "ü": 80,
  "ğ": 81,
  "İ": 82,
  "ı": 83,
  "ş": 84,
  "er": 85,
  "la": 86,
  "ir": 87,
  "in": 88,
  "le": 89,
  "en": 90,
  "il": 91,
  "ma": 92,
  "nı": 93,
  "ek": 94,
  "ar": 95,
  "on": 96,
  "lar": 97,
  "es": 98,
  "el": 99,
  "bir": 100,
  "da": 101,
  "iş": 102,
  "de": 103,
  "ır": 104,
  "ta": 105,
  "sa": 106,
  "ul": 107,
  "ya": 108,
  "ler": 109,
  "et": 110,
  "ak": 111,
  "ve": 112,
  "ulla": 113,
  "kulla": 114,
  "an": 115,
  "is": 116,
  "sı": 117,
  "lem": 118,
  "ol": 119,
  "ti": 120,
  "lı": 121,
  "kullanı": 122,
  "li": 123,
  "ur": 124,
  "bil": 125,
  "iç": 126,
  "or": 127,
  "lan": 128,
  "ları": 129,
  "ok": 130,
  "te": 131,
  "için": 132,
  "ver": 133,
  "işlem": 134,
  "nda": 135,
  "im": 136,
  "lama": 137,
  "bilir": 138,
  "ile": 139,
  "ka": 140,
  "re": 141,
  "ön": 142,
  "nes": 143,
  "ini": 144,
  "tion": 145,
  "ha": 146,
  "un": 147,
  "oken": 148,
  "ba": 149,
  "ça": 150,
  "ra": 151,
  "bu": 152,
  "ger": 153,
  "iy": 154,
  "ro": 155,
  "ser": 156,
  "şt": 157,
  "kullanıl": 158,
  "ge": 159,
  "iler": 160,
  "di": 161,
  "işlemler": 162,
  "ad": 163,
  "du": 164,
  "ic": 165,
  "mı": 166,
  "ut": 167,
  "ara": 168,
  "lik": 169,
  "tem": 170,
  "nesn": 171,
  "Bu": 172,
  "al": 173,
  "ko": 174,
  "ine": 175,
  "gu": 176,
  "it": 177,
  "me": 178,
  "ğı": 179,
  "dir": 180,
  "se": 181,
  "bel": 182,
  "iz": 183,
  "çek": 184,
  "inde": 185,
  "enel": 186,
  "cı": 187,
  "der": 188,
  "ig": 189,
  "met": 190,
  "tı": 191,
  "Con": 192,
  "dır": 193,
  "na": 194,
  "ot": 195,
  "uy": 196,
  "mak": 197,
  "sağ": 198,
  "yap": 199,
  "sını": 200,
  "do": 201,
  "den": 202,
  "dur": 203,
  "ip": 204,
  "po": 205,
  "token": 206,
  "est": 207,
  "serv": 208,
  "diğ": 209,
  "genel": 210,
  "mes": 211,
  "ron": 212,
  "ter": 213,
  "ür": 214,
  "lek": 215,
  "kay": 216,
  "kullanılır": 217,
  "at": 218,
  "ki": 219,
  "mek": 220,
  "eler": 221,
  "larını": 222,
  "uygu": 223,
  "gi": 224,
  "olar": 225,
  "sis": 226,
  "siy": 227,
  "yön": 228,
  "ing": 229,
  "len": 230,
  "enk": 231,
  "veriler": 232,
  "çalı": 233,
  "olarak": 234,
  "siyon": 235,
  "Token": 236,
  "as": 237,
  "dı": 238,
  "pro": 239,
  "tek": 240,
  "ğu": 241,
  "labilir": 242,
  "ili": 243,
  "daha": 244,
  "veri": 245,
  "işlemleri": 246,
  "likle": 247,
  "metot": 248,
  "servis": 249,
  "Dis": 250,
  "ct": 251,
  "cak": 252,
  "fı": 253,
  "kü": 254,
  "nak": 255,
  "pe": 256,
  "şek": 257,
  "veya": 258,
  "olu": 259,
  "oldu": 260,
  "ndan": 261,
  "kaynak": 262,
  "sistem": 263,
  "ce": 264,
  "fig": 265,
  "gra": 266,
  "son": 267,
  "yü": 268,
  "ün": 269,
  "şa": 270,
  "ent": 271,
  "enin": 272,
  "ması": 273,
  "say": 274,
  "gerek": 275,
  "uygulama": 276,
  "yönet": 277,
  "enkron": 278,
  "Dispo": 279,
  "figur": 280,
  "bl": 281,
  "ble": 282,
  "ed": 283,
  "fa": 284,
  "pp": 285,
  "sya": 286,
  "tut": 287,
  "um": 288,
  "yer": 289,
  "leşt": 290,
  "eni": 291,
  "arı": 292,
  "işk": 293,
  "tanı": 294,
  "ref": 295,
  "unu": 296,
  "tern": 297,
  "leksiyon": 298,
  "olduğu": 299,
  "leştir": 300,
  "St": 301,
  "ation": 302,
  "bi": 303,
  "ebilir": 304,
  "ik": 305,
  "ne": 306,
  "par": 307,
  "zer": 308,
  "eriş": 309,
  "ilde": 310,
  "ark": 311,
  "arak": 312,
  "sında": 313,
  "ore": 314,
  "baş": 315,
  "ştur": 316,
  "adı": 317,
  "nesne": 318,
  "koleksiyon": 319,
  "Configur": 320,
  "sağlar": 321,
  "dosya": 322,
  "attern": 323,
  "çalış": 324,
  "dığı": 325,
  "şekilde": 326,
  "gram": 327,
  "yük": 328,
  "parça": 329,
  "Col": 330,
  "Core": 331,
  "ET": 332,
  "NET": 333,
  "Ser": 334,
  "am": 335,
  "bır": 336,
  "best": 337,
  "dön": 338,
  "em": 339,
  "om": 340,
  "olan": 341,
  "tü": 342,
  "öz": 343,
  "üzer": 344,
  "maz": 345,
  "esi": 346,
  "birim": 347,
  "kullanıcı": 348,
  "ory": 349,
  "landır": 350,
  "ilen": 351,
  "gerçek": 352,
  "serbest": 353,
  "geç": 354,
  "ice": 355,
  "arabirim": 356,
  "yapı": 357,
  "genellikle": 358,
  "gibi": 359,
  "oluştur": 360,
  "Colle": 361,
  "bırak": 362,
  "gerçekleştir": 363,
  "Pro": 364,
  "ay": 365,
  "dek": 366,
  "for": 367,
  "fark": 368,
  "res": 369,
  "sor": 370,
  "sing": 371,
  "var": 372,
  "ype": 373,
  "za": 374,
  "ör": 375,
  "ğer": 376,
  "irli": 377,
  "man": 378,
  "nın": 379,
  "tal": 380,
  "leri": 381,
  "ana": 382,
  "nesnenin": 383,
  "işkili": 384,
  "Serv": 385,
  "--": 386,
  "IDispo": 387,
  "Pattern": 388,
  "aşa": 389,
  "app": 390,
  "ca": 391,
  "cel": 392,
  "ction": 393,
  "gü": 394,
  "giler": 395,
  "hı": 396,
  "her": 397,
  "hip": 398,
  "miş": 399,
  "tir": 400,
  "vent": 401,
  "zlı": 402,
  "ık": 403,
  "lat": 404,
  "lation": 405,
  "inden": 406,
  "art": 407,
  "ıra": 408,
  "taba": 409,
  "sable": 410,
  "yan": 411,
  "etk": 412,
  "lemek": 413,
  "olur": 414,
  "kullanılabilir": 415,
  "bilgiler": 416,
  "bağ": 417,
  "işlemlerini": 418,
  "nesneler": 419,
  "alma": 420,
  "sınıf": 421,
  "iptal": 422,
  "diğer": 423,
  "verileri": 424,
  "özel": 425,
  "deki": 426,
  "farklı": 427,
  "resh": 428,
  "-->": 429,
  "IDisposable": 430,
  "AS": 431,
  "As": 432,
  "Aut": 433,
  "Bir": 434,
  "Event": 435,
  "Kest": 436,
  "Re": 437,
  "bek": 438,
  "ban": 439,
  "bit": 440,
  "ci": 441,
  "dd": 442,
  "din": 443,
  "dür": 444,
  "ede": 445,
  "gel": 446,
  "gön": 447,
  "of": 448,
  "pen": 449,
  "rel": 450,
  "sc": 451,
  "st": 452,
  "sıra": 453,
  "uz": 454,
  "van": 455,
  "yı": 456,
  "yeni": 457,
  "ıl": 458,
  "ilir": 459,
  "ilişkili": 460,
  "dan": 461,
  "taj": 462,
  "tas": 463,
  "taban": 464,
  "sahip": 465,
  "lerinde": 466,
  "ancel": 467,
  "kullanılan": 468,
  "ların": 469,
  "ted": 470,
  "içinde": 471,
  "ream": 472,
  "hata": 473,
  "kullanılma": 474,
  "alt": 475,
  "mez": 476,
  "bellek": 477,
  "belirli": 478,
  "igra": 479,
  "sınıfı": 480,
  "durum": 481,
  "asenkron": 482,
  "tanım": 483,
  "refresh": 484,
  "Configure": 485,
  "tüm": 486,
  "landırma": 487,
  "Collection": 488,
  "hızlı": 489,
  "lationToken": 490,
  "ASP": 491,
  "Kestrel": 492,
  "gönder": 493,
  "vantaj": 494,
  "ancellationToken": 495,
  "()": 496,
  "An": 497,
  "Cre": 498,
  "CancellationToken": 499,
  "Da": 500,
  "Net": 501,
  "Type": 502,
  "alı": 503,
  "ait": 504,
  "ber": 505,
  "des": 506,
  "eb": 507,
  "eder": 508,
  "if": 509,
  "idir": 510,
  "idd": 511,
  "kon": 512,
  "op": 513,
  "pa": 514,
  "ran": 515,
  "sü": 516,
  "sür": 517,
  "tr": 518,
  "tır": 519,
  "tür": 520,
  "up": 521,
  "unda": 522,
  "war": 523,
  "ye": 524,
  "yok": 525,
  "ğr": 526,
  "eran": 527,
  "lamı": 528,
  "lewar": 529,
  "ilg": 530,
  "ilder": 531,
  "ekle": 532,
  "larda": 533,
  "elde": 534,
  "data": 535,
  "daki": 536,
  "depo": 537,
  "lerini": 538,
  "kullan": 539,
  "ancak": 540,
  "ise": 541,
  "leme": 542,
  "lım": 543,
  "içer": 544,
  "landığı": 545,
  "larında": 546,
  "imiz": 547,
  "lamak": 548,
  "read": 549,
  "ici": 550,
  "temiz": 551,
  "kod": 552,
  "belge": 553,
  "diğinde": 554,
  "genelde": 555,
  "mesi": 556,
  "program": 557,
  "servisler": 558,
  "kaynakları": 559,
  "ünkü": 560,
  "Dispose": 561,
  "edil": 562,
  "referan": 563,
  "Stream": 564,
  "adımı": 565,
  "olanak": 566,
  "üzerinden": 567,
  "geçici": 568,
  "Service": 569,
  "aşama": 570,
  "artup": 571,
  "bilgilerini": 572,
  "Auth": 573,
  "Ancak": 574,
  "iddlewar": 575,
  "referans": 576,
  "iddleware": 577,
  "Com": 578,
  "Db": 579,
  "Genel": 580,
  "Gran": 581,
  "II": 582,
  "ICollection": 583,
  "Mes": 584,
  "No": 585,
  "OAuth": 586,
  "Pu": 587,
  "Sq": 588,
  "abilir": 589,
  "able": 590,
  "bo": 591,
  "bile": 592,
  "cs": 593,
  "cu": 594,
  "cla": 595,
  "con": 596,
  "com": 597,
  "dü": 598,
  "ey": 599,
  "eş": 600,
  "fır": 601,
  "gö": 602,
  "gı": 603,
  "hti": 604,
  "hread": 605,
  "ihti": 606,
  "line": 607,
  "migra": 608,
  "nek": 609,
  "oma": 610,
  "oad": 611,
  "ope": 612,
  "si": 613,
  "ss": 614,
  "sek": 615,
  "sta": 616,
  "ten": 617,
  "tara": 618,
  "thread": 619,
  "ub": 620,
  "wait": 621,
  "yon": 622,
  "zır": 623,
  "Ör": 624,
  "çünkü": 625,
  "üyük": 626,
  "ğin": 627,
  "İl": 628,
  "ısı": 629,
  "erfor": 630,
  "inin": 631,
  "inci": 632,
  "mana": 633,
  "nır": 634,
  "arlı": 635,
  "artı": 636,
  "lara": 637,
  "işle": 638,
  "değ": 639,
  "anlamı": 640,
  "isher": 641,
  "sız": 642,
  "olma": 643,
  "tik": 644,
  "tim": 645,
  "lic": 646,
  "bilgi": 647,
  "ordin": 648,
  "lantı": 649,
  "verir": 650,
  "versiyon": 651,
  "işlemin": 652,
  "imlik": 653,
  "lamaz": 654,
  "nesnes": 655,
  "hazır": 656,
  "geri": 657,
  "ştır": 658,
  "icro": 659,
  "mış": 660,
  "arasında": 661,
  "kodu": 662,
  "koordin": 663,
  "meto": 664,
  "otoma": 665,
  "sağla": 666,
  "service": 667,
  "mesini": 668,
  "atör": 669,
  "sonra": 670,
  "gerekli": 671,
  "yönetim": 672,
  "blok": 673,
  "blisher": 674,
  "tutarak": 675,
  "tanır": 676,
  "Startup": 677,
  "neğin": 678,
  "çalışır": 679,
  "dığında": 680,
  "ilendir": 681,
  "Program": 682,
  "form": 683,
  "latform": 684,
  "tabase": 685,
  "bağlantı": 686,
  "beklen": 687,
  "scope": 688,
  "sırasında": 689,
  "bellekte": 690,
  "Database": 691,
  "süre": 692,
  "trol": 693,
  "ilgili": 694,
  "Comm": 695,
  "Grant": 696,
  "IIS": 697,
  "NoSq": 698,
  "Publisher": 699,
  "class": 700,
  "eşit": 701,
  "ihtiya": 702,
  "migration": 703,
  "oading": 704,
  "tarafı": 705,
  "erforman": 706,
  "arlılı": 707,
  "artık": 708,
  "koordinatör": 709,
  "otomatik": 710,
  "NoSql": 711,
  "Büyük": 712,
  "Co": 713,
  "DI": 714,
  "De": 715,
  "En": 716,
  "Eğer": 717,
  "Fa": 718,
  "File": 719,
  "Gar": 720,
  "Open": 721,
  "Sub": 722,
  "Uy": 723,
  "Ver": 724,
  "Yan": 725,
  "ac": 726,
  "ap": 727,
  "ala": 728,
  "alan": 729,
  "ated": 730,
  "avantaj": 731,
  "ces": 732,
  "dil": 733,
  "dar": 734,
  "dest": 735,
  "ele": 736,
  "fline": 737,
  "han": 738,
  "ken": 739,
  "kar": 740,
  "kimlik": 741,
  "lt": 742,
  "lu": 743,
  "ly": 744,
  "linde": 745,
  "middleware": 746,
  "nc": 747,
  "para": 748,
  "pattern": 749,
  "platform": 750,
  "performan": 751,
  "ri": 752,
  "sil": 753,
  "set": 754,
  "sunu": 755,
  "ty": 756,
  "tok": 757,
  "tron": 758,
  "top": 759,
  "ual": 760,
  "using": 761,
  "ven": 762,
  "web": 763,
  "xt": 764,
  "yi": 765,
  "yar": 766,
  "yet": 767,
  "yetk": 768,
  "zı": 769,
  "çok": 770,
  "çık": 771,
  "üm": 772,
  "İki": 773,
  "şık": 774,
  "erek": 775,
  "layı": 776,
  "maşık": 777,
  "ekler": 778,
  "birlik": 779,
  "işlen": 780,
  "dece": 781,
  "değer": 782,
  "sation": 783,
  "sage": 784,
  "sadece": 785,
  "ulur": 786,
  "etmek": 787,
  "antı": 788,
  "sıl": 789,
  "tic": 790,
  "tip": 791,
  "tiğ": 792,
  "tity": 793,
  "kullanır": 794,
  "kullanıla": 795,
  "lient": 796,
  "orsa": 797,
  "teg": 798,
  "text": 799,
  "içindeki": 800,
  "işlemi": 801,
  "kapa": 802,
  "kadar": 803,
  "hafı": 804,
  "unmana": 805,
  "bage": 806,
  "çağr": 807,
  "builder": 808,
  "iye": 809,
  "iyle": 810,
  "ged": 811,
  "gelen": 812,
  "dik": 813,
  "adesi": 814,
  "ices": 815,
  "ication": 816,
  "temsil": 817,
  "almak": 818,
  "gulama": 819,
  "mem": 820,
  "ğımı": 821,
  "çekil": 822,
  "tıl": 823,
  "tılım": 824,
  "Conne": 825,
  "Context": 826,
  "nasıl": 827,
  "sağlamak": 828,
  "dolayı": 829,
  "durdur": 830,
  "diğimiz": 831,
  "mesine": 832,
  "enktron": 833,
  "asyon": 834,
  "protok": 835,
  "tekr": 836,
  "veritaba": 837,
  "metotlar": 838,
  "ctor": 839,
  "ctory": 840,
  "kümes": 841,
  "şeklinde": 842,
  "kaynaklarını": 843,
  "sistemi": 844,
  "sayar": 845,
  "sayede": 846,
  "gerekir": 847,
  "uygulamalarını": 848,
  "yönetmek": 849,
  "tutarlılı": 850,
  "yerine": 851,
  "arısız": 852,
  "erişim": 853,
  "başka": 854,
  "başarısız": 855,
  "adım": 856,
  "çalışma": 857,
  "parçacı": 858,
  "döngü": 859,
  "emen": 860,
  "üzerinde": 861,
  "yapılandırma": 862,
  "Collector": 863,
  "bırakıl": 864,
  "gerçekleştirmek": 865,
  "sorun": 866,
  "sorgu": 867,
  "Services": 868,
  "güven": 869,
  "bağlı": 870,
  "Asenkron": 871,
  "gelir": 872,
  "pensation": 873,
  "uzantı": 874,
  "tasarı": 875,
  "tabanlı": 876,
  "tabanları": 877,
  "tanımlan": 878,
  "gönderip": 879,
  "();": 880,
  "Created": 881,
  "deseni": 882,
  "ifadesi": 883,
  "kontrol": 884,
  "süresi": 885,
  "depolama": 886,
  "içerir": 887,
  "aşamada": 888,
  "Message": 889,
  "compensation": 890,
  "fırlat": 891,
  "işletim": 892,
  "anlamına": 893,
  "lication": 894,
  "icroservice": 895,
  "metodu": 896,
  "ilendirme": 897,
  "bağlantıları": 898,
  "eşitli": 899,
  "ihtiyaç": 900,
  "tarafından": 901,
  "Factory": 902,
  "Garbage": 903,
  "OpenI": 904,
  "Uygulama": 905,
  "Yani": 906,
  "karmaşık": 907,
  "sunucu": 908,
  "yetkilendirme": 909,
  "birlikte": 910,
  "hafıza": 911,
  "unmanaged": 912,
  "çağrıl": 913,
  "tılımcı": 914,
  "Connect": 915,
  "protokol": 916,
  "veritabanı": 917,
  "tutarlılığı": 918,
  "güvenli": 919,
  "CreatedEvent": 920,
  "//": 921,
  "App": 922,
  "Await": 923,
  "Alt": 924,
  "Br": 925,
  "Bel": 926,
  "Client": 927,
  "Do": 928,
  "EF": 929,
  "Ea": 930,
  "Ge": 931,
  "Get": 932,
  "Ho": 933,
  "Her": 934,
  "IEn": 935,
  "IHo": 936,
  "Kulla": 937,
  "Key": 938,
  "La": 939,
  "Loading": 940,
  "Mon": 941,
  "Mem": 942,
  "Mapp": 943,
  "Migra": 944,
  "Middleware": 945,
  "Nes": 946,
  "Or": 947,
  "Out": 948,
  "Pha": 949,
  "Sta": 950,
  "Sca": 951,
  "To": 952,
  "Tw": 953,
  "Using": 954,
  "Win": 955,
  "Web": 956,
  "Yap": 957,
  "[]": 958,
  "aj": 959,
  "aç": 960,
  "ağ": 961,
  "anı": 962,
  "await": 963,
  "be": 964,
  "ben": 965,
  "bine": 966,
  "cy": 967,
  "cek": 968,
  "dConnect": 969,
  "ev": 970,
  "ema": 971,
  "ebil": 972,
  "eğer": 973,
  "go": 974,
  "gir": 975,
  "gin": 976,
  "gro": 977,
  "gör": 978,
  "hron": 979,
  "hemen": 980,
  "ider": 981,
  "iki": 982,
  "ji": 983,
  "ket": 984,
  "kgro": 985,
  "loading": 986,
  "mi": 987,
  "mo": 988,
  "men": 989,
  "mut": 990,
  "meler": 991,
  "microservice": 992,
  "nok": 993,
  "oda": 994,
  "our": 995,
  "oğu": 996,
  "olabilir": 997,
  "opp": 998,
  "pr": 999,
  "ption": 1000,
  "put": 1001,
  "sö": 1002,
  "sel": 1003,
  "sit": 1004,
  "siz": 1005,
  "senkron": 1006,
  "sted": 1007,
  "type": 1008,
  "us": 1009,
  "uç": 1010,
  "uma": 1011,
  "ulan": 1012,
  "ulama": 1013,
  "vider": 1014,
  "ws": 1015,
  "yler": 1016,
  "yebilir": 1017,
  "ync": 1018,
  "zy": 1019,
  "zla": 1020,
  "zor": 1021,
  "Öz": 1022,
  "çen": 1023,
  "çta": 1024,
  "çeşitli": 1025,
  "öl": 1026,
  "üş": 1027,
  "ğır": 1028,
  "ğini": 1029,
  "ın": 1030,
  "ılan": 1031,
  "ından": 1032,
  "ılandırma": 1033,
  "şir": 1034,
  "şır": 1035,
  "şey": 1036,
  "erdiğinde": 1037,
  "erable": 1038,
  "lay": 1039,
  "laka": 1040,
  "inter": 1041,
  "let": 1042,
  "ensi": 1043,
  "ilmiş": 1044,
  "mam": 1045,
  "mar": 1046,
  "maya": 1047,
  "nıcı": 1048,
  "eklemek": 1049,
  "onun": 1050,
  "onay": 1051,
  "only": 1052,
  "esnek": 1053,
  "elim": 1054,
  "birden": 1055,
  "daya": 1056,
  "işik": 1057,
  "iştir": 1058,
  "demek": 1059,
  "tale": 1060,
  "taki": 1061,
  "tamam": 1062,
  "ult": 1063,
  "ulması": 1064,
  "yanı": 1065,
  "yabilir": 1066,
  "yaşa": 1067,
  "aniz": 1068,
  "iste": 1069,
  "isim": 1070,
  "sın": 1071,
  "lemen": 1072,
  "olları": 1073,
  "olmaz": 1074,
  "tial": 1075,
  "kullanım": 1076,
  "liğ": 1077,
  "lidir": 1078,
  "liyet": 1079,
  "orta": 1080,
  "langı": 1081,
  "oker": 1082,
  "okuma": 1083,
  "verim": 1084,
  "işleme": 1085,
  "bilirim": 1086,
  "ilebilir": 1087,
  "kat": 1088,
  "katılımcı": 1089,
  "rev": 1090,
  "önem": 1091,
  "und": 1092,
  "unication": 1093,
  "çağır": 1094,
  "bundan": 1095,
  "bulamaz": 1096,
  "iyi": 1097,
  "iyorsa": 1098,
  "kullanılması": 1099,
  "kullanıldığında": 1100,
  "ilerin": 1101,
  "diz": 1102,
  "duct": 1103,
  "mın": 1104,
  "likler": 1105,
  "temel": 1106,
  "Builder": 1107,
  "alır": 1108,
  "meye": 1109,
  "dirir": 1110,
  "sev": 1111,
  "seçen": 1112,
  "belir": 1113,
  "ize": 1114,
  "çeker": 1115,
  "çekme": 1116,
  "tığımı": 1117,
  "sağlama": 1118,
  "yapark": 1119,
  "yapabilir": 1120,
  "yaptığımı": 1121,
  "doğr": 1122,
  "dows": 1123,
  "dential": 1124,
  "diği": 1125,
  "terci": 1126,
  "kayde": 1127,
  "mekaniz": 1128,
  "eleri": 1129,
  "uygular": 1130,
  "sisten": 1131,
  "yöntem": 1132,
  "verilerin": 1133,
  "verilerini": 1134,
  "çalışt": 1135,
  "çalışa": 1136,
  "asenktron": 1137,
  "progra": 1138,
  "provider": 1139,
  "tekn": 1140,
  "metotu": 1141,
  "metotları": 1142,
  "metotunu": 1143,
  "servisi": 1144,
  "küme": 1145,
  "kaynaklar": 1146,
  "sona": 1147,
  "sonlandır": 1148,
  "yüz": 1149,
  "sayısı": 1150,
  "uygulamalarında": 1151,
  "yönetilen": 1152,
  "face": 1153,
  "fazla": 1154,
  "fault": 1155,
  "umerable": 1156,
  "arın": 1157,
  "işken": 1158,
  "ikinci": 1159,
  "başlangı": 1160,
  "koleksiyonun": 1161,
  "koleksiyondaki": 1162,
  "Configuration": 1163,
  "Configurasyon": 1164,
  "dosyalarını": 1165,
  "çalışmak": 1166,
  "yükleme": 1167,
  "yüksek": 1168,
  "döner": 1169,
  "döndür": 1170,
  "dönüş": 1171,
  "mazsa": 1172,
  "kullanıcıların": 1173,
  "geçer": 1174,
  "arabirimi": 1175,
  "arabirimine": 1176,
  "arabirimdir": 1177,
  "yapılabilir": 1178,
  "oluşturmak": 1179,
  "oluşturulur": 1180,
  "bırakma": 1181,
  "bırakmak": 1182,
  "aynı": 1183,
  "vardır": 1184,
  "zaman": 1185,
  "zavantaj": 1186,
  "örneğin": 1187,
  "aşaması": 1188,
  "categ": 1189,
  "olursa": 1190,
  "nesnelerin": 1191,
  "sınıfta": 1192,
  "özellik": 1193,
  "özellikle": 1194,
  "özelliğ": 1195,
  "Ref": 1196,
  "Read": 1197,
  "bittiğ": 1198,
  "edebilirim": 1199,
  "geliştir": 1200,
  "offline": 1201,
  "scri": 1202,
  "uzun": 1203,
  "tasar": 1204,
  "sahiptir": 1205,
  "kullanılmayan": 1206,
  "alttaki": 1207,
  "sınıfından": 1208,
  "durumunu": 1209,
  "ConfigureServices": 1210,
  "Credential": 1211,
  "alın": 1212,
  "desen": 1213,
  "türet": 1214,
  "yoksa": 1215,
  "eklediğimiz": 1216,
  "kullanmak": 1217,
  "imizi": 1218,
  "programlama": 1219,
  "servislere": 1220,
  "servislerin": 1221,
  "adımın": 1222,
  "DbContext": 1223,
  "Genelde": 1224,
  "Genellikle": 1225,
  "boş": 1226,
  "configur": 1227,
  "düş": 1228,
  "stan": 1229,
  "Örnek": 1230,
  "Örneğin": 1231,
  "İlk": 1232,
  "İlişkili": 1233,
  "değişik": 1234,
  "değişken": 1235,
  "bilgisayar": 1236,
  "verirsek": 1237,
  "versiyonlarda": 1238,
  "nesnesi": 1239,
  "sağlayan": 1240,
  "sağlayabilir": 1241,
  "beklenen": 1242,
  "Commit": 1243,
  "Communication": 1244,
  "Dezavantaj": 1245,
  "FileStream": 1246,
  "Subscri": 1247,
  "acces": 1248,
  "alanı": 1249,
  "avantajları": 1250,
  "destekler": 1251,
  "eleman": 1252,
  "platformunda": 1253,
  "performans": 1254,
  "setlerinde": 1255,
  "toplandığı": 1256,
  "kullanılacak": 1257,
  "kapatıl": 1258,
  "dikkat": 1259,
  "memory": 1260,
  "durdurulması": 1261,
  "tekrar": 1262,
  "kümesinin": 1263,
  "parçacığı": 1264,
  "tasarım": 1265,
  "OpenIdConnect": 1266,
  "hafızadan": 1267,
  "çağrılır": 1268,
  "Application": 1269,
  "Broker": 1270,
  "Belirli": 1271,
  "Eager": 1272,
  "IEnumerable": 1273,
  "IHosted": 1274,
  "Kullanıcı": 1275,
  "Lazy": 1276,
  "Mongo": 1277,
  "Memory": 1278,
  "Mapper": 1279,
  "Migrate": 1280,
  "Phase": 1281,
  "Static": 1282,
  "Scale": 1283,
  "Two": 1284,
  "Windows": 1285,
  "WebApplication": 1286,
  "Yapılandırma": 1287,
  "anında": 1288,
  "email": 1289,
  "giriş": 1290,
  "hronus": 1291,
  "kground": 1292,
  "mod": 1293,
  "mutlaka": 1294,
  "nokta": 1295,
  "ource": 1296,
  "prensi": 1297,
  "söyler": 1298,
  "siteler": 1299,
  "typeof": 1300,
  "ynchronus": 1301,
  "şeyler": 1302,
  "interface": 1303,
  "dayanır": 1304,
  "yaşam": 1305,
  "katılımcılara": 1306,
  "önemlidir": 1307,
  "bulamazsa": 1308,
  "ducts": 1309,
  "yaparken": 1310,
  "yaptığımız": 1311,
  "doğrulama": 1312,
  "tercih": 1313,
  "sistency": 1314,
  "programın": 1315,
  "başlangıçta": 1316,
  "category": 1317,
  "bittiğinde": 1318,
  "Credentials": 1319,
  "değişiklikler": 1320,
  "Subscriber": 1321,
  "access": 1322,
  "prensibine": 1323,
  "),": 1324,
  "):": 1325,
  "90": 1326,
  ">)": 1327,
  "Ab": 1328,
  "Ar": 1329,
  "Ay": 1330,
  "Add": 1331,
  "Avantaj": 1332,
  "Bil": 1333,
  "Bac": 1334,
  "CP": 1335,
  "Ca": 1336,
  "Cy": 1337,
  "Cle": 1338,
  "Colu": 1339,
  "Cent": 1340,
  "Em": 1341,
  "Fi": 1342,
  "Fir": 1343,
  "Fra": 1344,
  "Fore": 1345,
  "GC": 1346,
  "Gen": 1347,
  "Has": 1348,
  "Hemen": 1349,
  "IO": 1350,
  "Im": 1351,
  "In": 1352,
  "Is": 1353,
  "Iden": 1354,
  "IService": 1355,
  "Inc": 1356,
  "Json": 1357,
  "Ka": 1358,
  "Ko": 1359,
  "Kalı": 1360,
  "Kimlik": 1361,
  "Lis": 1362,
  "Lif": 1363,
  "Mana": 1364,
  "Micro": 1365,
  "Microservice": 1366,
  "Mev": 1367,
  "Ni": 1368,
  "Of": 1369,
  "Ow": 1370,
  "Option": 1371,
  "Pd": 1372,
  "Platform": 1373,
  "Performan": 1374,
  "Pri": 1375,
  "QL": 1376,
  "Ro": 1377,
  "Res": 1378,
  "Red": 1379,
  "Ram": 1380,
  "Rem": 1381,
  "Sa": 1382,
  "Son": 1383,
  "Set": 1384,
  "Sor": 1385,
  "Sing": 1386,
  "Senkron": 1387,
  "Ship": 1388,
  "Source": 1389,
  "Synchronus": 1390,
  "SQL": 1391,
  "Tut": 1392,
  "Tas": 1393,
  "Tem": 1394,
  "Tran": 1395,
  "Table": 1396,
  "Un": 1397,
  "Up": 1398,
  "User": 1399,
  "Use": 1400,
  "Vir": 1401,
  "Wr": 1402,
  "Wor": 1403,
  "Wait": 1404,
  "Yu": 1405,
  "_access": 1406,
  "ada": 1407,
  "alabilir": 1408,
  "aber": 1409,
  "alamaz": 1410,
  "aşır": 1411,
  "aliyet": 1412,
  "bj": 1413,
  "by": 1414,
  "bur": 1415,
  "bun": 1416,
  "bed": 1417,
  "bunu": 1418,
  "büyük": 1419,
  "bContext": 1420,
  "böl": 1421,
  "barın": 1422,
  "cka": 1423,
  "cre": 1424,
  "cut": 1425,
  "cum": 1426,
  "cesi": 1427,
  "cancellationToken": 1428,
  "client": 1429,
  "ckground": 1430,
  "dl": 1431,
  "dis": 1432,
  "diy": 1433,
  "dolu": 1434,
  "dün": 1435,
  "dart": 1436,
  "dTo": 1437,
  "dbContext": 1438,
  "ep": 1439,
  "ex": 1440,
  "ela": 1441,
  "edir": 1442,
  "eden": 1443,
  "ect": 1444,
  "ece": 1445,
  "event": 1446,
  "eCy": 1447,
  "fiz": 1448,
  "fif": 1449,
  "fication": 1450,
  "ga": 1451,
  "gun": 1452,
  "geler": 1453,
  "gün": 1454,
  "hü": 1455,
  "hes": 1456,
  "hSet": 1457,
  "hep": 1458,
  "id": 1459,
  "ie": 1460,
  "ies": 1461,
  "ibu": 1462,
  "ifa": 1463,
  "iable": 1464,
  "jenin": 1465,
  "jeleri": 1466,
  "kı": 1467,
  "kil": 1468,
  "kes": 1469,
  "klı": 1470,
  "klan": 1471,
  "kça": 1472,
  "klarını": 1473,
  "karı": 1474,
  "kısı": 1475,
  "kinci": 1476,
  "kelim": 1477,
  "kolları": 1478,
  "lo": 1479,
  "lü": 1480,
  "lnı": 1481,
  "lili": 1482,
  "mn": 1483,
  "ms": 1484,
  "mu": 1485,
  "mü": 1486,
  "mel": 1487,
  "mda": 1488,
  "mcı": 1489,
  "menin": 1490,
  "mbl": 1491,
  "msız": 1492,
  "müm": 1493,
  "merek": 1494,
  "miyorsa": 1495,
  "no": 1496,
  "ner": 1497,
  "nul": 1498,
  "nenin": 1499,
  "nsta": 1500,
  "ole": 1501,
  "ove": 1502,
  "oji": 1503,
  "oMapper": 1504,
  "obj": 1505,
  "ps": 1506,
  "pit": 1507,
  "pay": 1508,
  "pleri": 1509,
  "plic": 1510,
  "phan": 1511,
  "plemen": 1512,
  "qu": 1513,
  "rı": 1514,
  "rak": 1515,
  "rilir": 1516,
  "su": 1517,
  "sin": 1518,
  "siler": 1519,
  "sine": 1520,
  "ster": 1521,
  "stek": 1522,
  "sün": 1523,
  "sPattern": 1524,
  "sof": 1525,
  "sub": 1526,
  "sole": 1527,
  "tar": 1528,
  "tes": 1529,
  "tur": 1530,
  "tları": 1531,
  "tot": 1532,
  "tual": 1533,
  "uğ": 1534,
  "ula": 1535,
  "ularda": 1536,
  "ucu": 1537,
  "vig": 1538,
  "vam": 1539,
  "wor": 1540,
  "yen": 1541,
  "yel": 1542,
  "yda": 1543,
  "yun": 1544,
  "ydu": 1545,
  "yara": 1546,
  "ygı": 1547,
  "yorsa": 1548,
  "yolları": 1549,
  "zen": 1550,
  "zma": 1551,
  "zesi": 1552,
  "zlandır": 1553,
  "zca": 1554,
  "Çünkü": 1555,
  "Çeşitli": 1556,
  "Çoğu": 1557,
  "Öne": 1558,
  "çları": 1559,
  "çöz": 1560,
  "çmiş": 1561,
  "çlerini": 1562,
  "çev": 1563,
  "öğ": 1564,
  "ögeler": 1565,
  "ük": 1566,
  "üdür": 1567,
  "üst": 1568,
  "ğeni": 1569,
  "ğmen": 1570,
  "İş": 1571,
  "İkinci": 1572,
  "İnsta": 1573,
  "İstek": 1574,
  "ış": 1575,
  "ımı": 1576,
  "ığı": 1577,
  "ılabilir": 1578,
  "ının": 1579,
  "şu": 1580,
  "şan": 1581,
  "şur": 1582,
  "şver": 1583,
  "şmak": 1584,
  "şenin": 1585,
  "şması": 1586,
  "şik": 1587,
  "şkil": 1588,
  "eren": 1589,
  "erli": 1590,
  "erinin": 1591,
  "lata": 1592,
  "layan": 1593,
  "lanır": 1594,
  "laştır": 1595,
  "laşmak": 1596,
  "ired": 1597,
  "irdek": 1598,
  "ins": 1599,
  "int": 1600,
  "inir": 1601,
  "inse": 1602,
  "inToken": 1603,
  "ince": 1604,
  "intern": 1605,
  "instan": 1606,
  "ledin": 1607,
  "leyebilir": 1608,
  "leşir": 1609,
  "leşik": 1610,
  "entity": 1611,
  "ild": 1612,
  "iliş": 1613,
  "ilur": 1614,
  "ilişk": 1615,
  "ildiğinde": 1616,
  "malı": 1617,
  "madır": 1618,
  "mamak": 1619,
  "madan": 1620,
  "mamış": 1621,
  "maliyet": 1622,
  "nına": 1623,
  "ekt": 1624,
  "ekra": 1625,
  "eklen": 1626,
  "ekleri": 1627,
  "eksel": 1628,
  "arka": 1629,
  "armak": 1630,
  "onu": 1631,
  "online": 1632,
  "larla": 1633,
  "larsa": 1634,
  "esine": 1635,
  "esince": 1636,
  "eld": 1637,
  "eli": 1638,
  "elle": 1639,
  "ellikle": 1640,
  "biri": 1641,
  "birbir": 1642,
  "birleştir": 1643,
  "birinci": 1644,
  "işler": 1645,
  "işini": 1646,
  "ded": 1647,
  "default": 1648,
  "devam": 1649,
  "tabl": 1650,
  "tane": 1651,
  "taşır": 1652,
  "tains": 1653,
  "sam": 1654,
  "saat": 1655,
  "saction": 1656,
  "sabit": 1657,
  "satır": 1658,
  "salt": 1659,
  "yaya": 1660,
  "yazı": 1661,
  "yalnı": 1662,
  "yaygı": 1663,
  "yazma": 1664,
  "lerin": 1665,
  "lerde": 1666,
  "lerse": 1667,
  "lerinden": 1668,
  "lerdeki": 1669,
  "lerimizi": 1670,
  "etle": 1671,
  "etki": 1672,
  "etmiş": 1673,
  "etmesini": 1674,
  "etmesine": 1675,
  "etmeler": 1676,
  "etmiyorsa": 1677,
  "aksine": 1678,
  "anda": 1679,
  "andan": 1680,
  "isi": 1681,
  "ister": 1682,
  "istek": 1683,
  "isten": 1684,
  "ismi": 1685,
  "sıdır": 1686,
  "sıkça": 1687,
  "lemler": 1688,
  "lemeleri": 1689,
  "lemesine": 1690,
  "ols": 1691,
  "olmak": 1692,
  "olması": 1693,
  "olmu": 1694,
  "oloji": 1695,
  "tilen": 1696,
  "tification": 1697,
  "lık": 1698,
  "lıp": 1699,
  "kullanımı": 1700,
  "kullanılıp": 1701,
  "urlar": 1702,
  "biliy": 1703,
  "bilme": 1704,
  "bilmez": 1705,
  "bildiğimiz": 1706,
  "bildirir": 1707,
  "bilinir": 1708,
  "oriz": 1709,
  "oruz": 1710,
  "ories": 1711,
  "lanmı": 1712,
  "lanmaz": 1713,
  "lanana": 1714,
  "lanabilir": 1715,
  "lanmış": 1716,
  "lanmaya": 1717,
  "lanmamış": 1718,
  "okie": 1719,
  "teşkil": 1720,
  "içine": 1721,
  "içinden": 1722,
  "veren": 1723,
  "verebilir": 1724,
  "veriye": 1725,
  "vermen": 1726,
  "veriyi": 1727,
  "işlemini": 1728,
  "imde": 1729,
  "imine": 1730,
  "impe": 1731,
  "implemen": 1732,
  "lamalar": 1733,
  "lamaları": 1734,
  "lamasını": 1735,
  "ileyebilir": 1736,
  "ilebilme": 1737,
  "kalan": 1738,
  "kaps": 1739,
  "rebilir": 1740,
  "önler": 1741,
  "önlemek": 1742,
  "öncek": 1743,
  "öncesi": 1744,
  "hai": 1745,
  "haber": 1746,
  "hafif": 1747,
  "unt": 1748,
  "bağı": 1749,
  "bazı": 1750,
  "bağımı": 1751,
  "background": 1752,
  "ral": 1753,
  "ray": 1754,
  "ract": 1755,
  "rağmen": 1756,
  "raşması": 1757,
  "gerCon": 1758,
  "iyeli": 1759,
  "şterinin": 1760,
  "kullanılsa": 1761,
  "geMana": 1762,
  "ileriyle": 1763,
  "diji": 1764,
  "işlemlere": 1765,
  "işlemlerde": 1766,
  "işlemlerinde": 1767,
  "adres": 1768,
  "duyar": 1769,
  "duydu": 1770,
  "icilerin": 1771,
  "mızı": 1772,
  "mıyorsa": 1773,
  "araya": 1774,
  "arası": 1775,
  "arayüz": 1776,
  "araçları": 1777,
  "Bundan": 1778,
  "Build": 1779,
  "altı": 1780,
  "kolay": 1781,
  "gular": 1782,
  "iter": 1783,
  "memesi": 1784,
  "meğini": 1785,
  "mewor": 1786,
  "ğın": 1787,
  "ğını": 1788,
  "ğıtıl": 1789,
  "dirilir": 1790,
  "direkt": 1791,
  "sebe": 1792,
  "sembl": 1793,
  "belli": 1794,
  "izin": 1795,
  "izlemek": 1796,
  "çekli": 1797,
  "çekmek": 1798,
  "çekmesini": 1799,
  "çekirdek": 1800,
  "çekimine": 1801,
  "derek": 1802,
  "derCreatedEvent": 1803,
  "ign": 1804,
  "metin": 1805,
  "metre": 1806,
  "Consistency": 1807,
  "Contains": 1808,
  "dırma": 1809,
  "nalarını": 1810,
  "naca": 1811,
  "navig": 1812,
  "uyor": 1813,
  "uyum": 1814,
  "uygun": 1815,
  "yapmak": 1816,
  "yapmana": 1817,
  "yapmış": 1818,
  "yapmadan": 1819,
  "sının": 1820,
  "dolarsa": 1821,
  "denlerinden": 1822,
  "point": 1823,
  "diğimde": 1824,
  "mesaj": 1825,
  "mesela": 1826,
  "ürün": 1827,
  "kaybo": 1828,
  "kaynalarını": 1829,
  "atom": 1830,
  "elerle": 1831,
  "elerinin": 1832,
  "uygulay": 1833,
  "uygulanmamış": 1834,
  "gisayar": 1835,
  "yönlen": 1836,
  "ingToken": 1837,
  "leneksel": 1838,
  "lendirilir": 1839,
  "verilere": 1840,
  "çalıştır": 1841,
  "assing": 1842,
  "dış": 1843,
  "dılarını": 1844,
  "dımcı": 1845,
  "products": 1846,
  "projeleri": 1847,
  "veritabanları": 1848,
  "servise": 1849,
  "servisin": 1850,
  "servisleri": 1851,
  "servisidir": 1852,
  "Distr": 1853,
  "kün": 1854,
  "kütü": 1855,
  "kümenin": 1856,
  "olup": 1857,
  "oluşur": 1858,
  "olduklarını": 1859,
  "kaynakların": 1860,
  "kaynaklara": 1861,
  "sistemde": 1862,
  "sistemine": 1863,
  "sistemdir": 1864,
  "sistemleri": 1865,
  "sistemdeki": 1866,
  "sistemlerinde": 1867,
  "sistemlerdeki": 1868,
  "ced": 1869,
  "ception": 1870,
  "sonuç": 1871,
  "sonrak": 1872,
  "sonucu": 1873,
  "ünü": 1874,
  "ünebilir": 1875,
  "şamaz": 1876,
  "sayma": 1877,
  "sayılan": 1878,
  "sayarın": 1879,
  "sayonu": 1880,
  "gerekebilir": 1881,
  "gerektir": 1882,
  "gerekmez": 1883,
  "gereksiz": 1884,
  "uygulamaları": 1885,
  "uygulamadır": 1886,
  "uygulamasını": 1887,
  "yönetilir": 1888,
  "yönettiğ": 1889,
  "yönetmeye": 1890,
  "bloğu": 1891,
  "edilen": 1892,
  "edilir": 1893,
  "edilebilir": 1894,
  "falan": 1895,
  "faaliyet": 1896,
  "fayda": 1897,
  "failur": 1898,
  "tutar": 1899,
  "tutulan": 1900,
  "tutmamak": 1901,
  "tutuyor": 1902,
  "umlandırma": 1903,
  "yerek": 1904,
  "yerde": 1905,
  "yerdir": 1906,
  "yerleştir": 1907,
  "yerleşik": 1908,
  "enid": 1909,
  "arıza": 1910,
  "tanıyan": 1911,
  "olduğunda": 1912,
  "Stopp": 1913,
  "ebilirler": 1914,
  "ikiye": 1915,
  "iksel": 1916,
  "nedenlerinden": 1917,
  "zeri": 1918,
  "erişir": 1919,
  "erişmek": 1920,
  "erişmesine": 1921,
  "erişebil": 1922,
  "erişilebilir": 1923,
  "erişildiğinde": 1924,
  "erişilebilme": 1925,
  "başlamı": 1926,
  "başlayan": 1927,
  "adında": 1928,
  "adına": 1929,
  "nesnedir": 1930,
  "nesneyi": 1931,
  "koleksiyondan": 1932,
  "dosyasını": 1933,
  "dosyanın": 1934,
  "dosyalarla": 1935,
  "çalışılan": 1936,
  "yüklü": 1937,
  "yükledin": 1938,
  "parçaları": 1939,
  "parçasını": 1940,
  "parçalanmış": 1941,
  "Server": 1942,
  "amik": 1943,
  "olana": 1944,
  "tüket": 1945,
  "türev": 1946,
  "özgü": 1947,
  "üzerine": 1948,
  "mazlar": 1949,
  "kullanıcının": 1950,
  "kullanıcıdan": 1951,
  "ilenir": 1952,
  "geçebilir": 1953,
  "geçmesi": 1954,
  "arabirimini": 1955,
  "yapıp": 1956,
  "yapılan": 1957,
  "yapısında": 1958,
  "yapısıdır": 1959,
  "oluşturarak": 1960,
  "oluşturabilir": 1961,
  "oluşturulan": 1962,
  "oluşturmaya": 1963,
  "oluştururlar": 1964,
  "bırakır": 1965,
  "bırakmaz": 1966,
  "gerçekleştirir": 1967,
  "gerçekleştirmez": 1968,
  "gerçekleştirebil": 1969,
  "gerçekleştirmeler": 1970,
  "gerçekleştirmeye": 1971,
  "gerçekleştirebilirler": 1972,
  "Proces": 1973,
  "Products": 1974,
  "Projenin": 1975,
  "Protot": 1976,
  "ayıra": 1977,
  "aygı": 1978,
  "ayrı": 1979,
  "farkı": 1980,
  "sorar": 1981,
  "sorunu": 1982,
  "single": 1983,
  "variable": 1984,
  "varsayılan": 1985,
  "nesneninin": 1986,
  "Patterns": 1987,
  "application": 1988,
  "cellemek": 1989,
  "hızlandır": 1990,
  "miştir": 1991,
  "zlığın": 1992,
  "ıklarında": 1993,
  "lationShip": 1994,
  "arttır": 1995,
  "yani": 1996,
  "etkili": 1997,
  "etklili": 1998,
  "etkinse": 1999,
  "etkileyebilir": 2000,
  "olurlar": 2001,
  "bilgileri": 2002,
  "bilgilerin": 2003,
  "nesnelere": 2004,
  "nesneleri": 2005,
  "nesnelerle": 2006,
  "nesnelerini": 2007,
  "almam": 2008,
  "sınıflar": 2009,
  "sınıflarını": 2010,
  "sınıftır": 2011,
  "Asenktron": 2012,
  "Asynchronus": 2013,
  "Assembl": 2014,
  "AutoMapper": 2015,
  "Eventual": 2016,
  "Requ": 2017,
  "RelationShip": 2018,
  "beklemek": 2019,
  "beklet": 2020,
  "bitmiş": 2021,
  "bitmesi": 2022,
  "bitmesine": 2023,
  "dinamik": 2024,
  "edemez": 2025,
  "geldi": 2026,
  "stream": 2027,
  "startup": 2028,
  "stOr": 2029,
  "stopp": 2030,
  "stract": 2031,
  "sırada": 2032,
  "tasyon": 2033,
  "hatalar": 2034,
  "hatası": 2035,
  "kullanılmaya": 2036,
  "kullanılmalı": 2037,
  "kullanılmadır": 2038,
  "kullanılmasını": 2039,
  "altyapısında": 2040,
  "sınıfını": 2041,
  "durumu": 2042,
  "durumda": 2043,
  "tanımlar": 2044,
  "tanımlama": 2045,
  "tanımlamak": 2046,
  "ConfigureMiddleware": 2047,
  "hızlıdır": 2048,
  "gönderen": 2049,
  "gönderebilir": 2050,
  "göndererek": 2051,
  "CancellationTokenSource": 2052,
  "Dağıtıl": 2053,
  "alışver": 2054,
  "alınaca": 2055,
  "beraber": 2056,
  "konularda": 2057,
  "konumlandırma": 2058,
  "optim": 2059,
  "openid": 2060,
  "packa": 2061,
  "pazesi": 2062,
  "süren": 2063,
  "süresince": 2064,
  "türleri": 2065,
  "türlerinde": 2066,
  "türünü": 2067,
  "undaki": 2068,
  "yebiliy": 2069,
  "yoktur": 2070,
  "ilgilenir": 2071,
  "ekleyen": 2072,
  "ekleyerek": 2073,
  "ekleyebiliy": 2074,
  "datalarını": 2075,
  "datayı": 2076,
  "depolandığı": 2077,
  "depolanabilir": 2078,
  "kullanarak": 2079,
  "kullanmazsa": 2080,
  "kullanmazlar": 2081,
  "lemeden": 2082,
  "içeren": 2083,
  "içermez": 2084,
  "landığında": 2085,
  "landığından": 2086,
  "readonly": 2087,
  "temizler": 2088,
  "temizlemek": 2089,
  "temizleme": 2090,
  "temizleyebilir": 2091,
  "temizlemesine": 2092,
  "kodlar": 2093,
  "kodunu": 2094,
  "kodlamalar": 2095,
  "belgeyi": 2096,
  "programları": 2097,
  "programların": 2098,
  "servislerimizi": 2099,
  "kaynaklarına": 2100,
  "edilip": 2101,
  "edilmek": 2102,
  "edilmel": 2103,
  "edilmeğini": 2104,
  "edilmiştir": 2105,
  "StreamRead": 2106,
  "StreamWr": 2107,
  "adımını": 2108,
  "aşamaya": 2109,
  "aşamalı": 2110,
  "Authoriz": 2111,
  "referanslamak": 2112,
  "Mesaj": 2113,
  "boyun": 2114,
  "bilecek": 2115,
  "bileşenin": 2116,
  "control": 2117,
  "consistency": 2118,
  "düzen": 2119,
  "fırlata": 2120,
  "görev": 2121,
  "gömerek": 2122,
  "göster": 2123,
  "görebilir": 2124,
  "static": 2125,
  "ısından": 2126,
  "nırken": 2127,
  "işlelerinde": 2128,
  "olmasa": 2129,
  "olmadığında": 2130,
  "olmasının": 2131,
  "olmadılarını": 2132,
  "bilgisayarın": 2133,
  "versiyonların": 2134,
  "nesnesin": 2135,
  "nesnesini": 2136,
  "hazırlık": 2137,
  "kodudur": 2138,
  "metod": 2139,
  "sonrası": 2140,
  "yönetimi": 2141,
  "yönetimini": 2142,
  "yönetimiyle": 2143,
  "bloklamaz": 2144,
  "bloklanır": 2145,
  "bloklanmaz": 2146,
  "ilendirilmiş": 2147,
  "beklenir": 2148,
  "beklenmez": 2149,
  "süreçlerini": 2150,
  "eşitleme": 2151,
  "ihtiyacı": 2152,
  "tarafında": 2153,
  "arlılık": 2154,
  "Code": 2155,
  "Cookie": 2156,
  "Count": 2157,
  "Default": 2158,
  "Entity": 2159,
  "Files": 2160,
  "Subset": 2161,
  "Veri": 2162,
  "Veriler": 2163,
  "Verilerin": 2164,
  "aplamaları": 2165,
  "alanın": 2166,
  "alanlarda": 2167,
  "alandaki": 2168,
  "dilinde": 2169,
  "dilmiş": 2170,
  "destekleyen": 2171,
  "hangi": 2172,
  "handl": 2173,
  "kendi": 2174,
  "kimliklerini": 2175,
  "lude": 2176,
  "ludur": 2177,
  "params": 2178,
  "parametre": 2179,
  "platformlarında": 2180,
  "performansı": 2181,
  "toplanmaya": 2182,
  "yarar": 2183,
  "yardımcı": 2184,
  "yeterli": 2185,
  "çoklu": 2186,
  "çıkma": 2187,
  "çıkış": 2188,
  "çıkarmak": 2189,
  "ümdür": 2190,
  "işlenmesi": 2191,
  "işlenmesini": 2192,
  "işlenece": 2193,
  "değerler": 2194,
  "değerleri": 2195,
  "ulurken": 2196,
  "tipidir": 2197,
  "kullanırlar": 2198,
  "kullanırsam": 2199,
  "kullanılabilecek": 2200,
  "tegories": 2201,
  "kapanırken": 2202,
  "gelene": 2203,
  "dikten": 2204,
  "çekildiğinde": 2205,
  "çekilmemesi": 2206,
  "çekildikten": 2207,
  "sağlamaktır": 2208,
  "durdurulurken": 2209,
  "asyonunu": 2210,
  "tekrarı": 2211,
  "kümesiyle": 2212,
  "kaynaklarının": 2213,
  "gerekirse": 2214,
  "uygulamalarının": 2215,
  "erişimine": 2216,
  "çalışmalarını": 2217,
  "parçacıklı": 2218,
  "döngüsü": 2219,
  "döngüsün": 2220,
  "yapılandırmayı": 2221,
  "bırakılır": 2222,
  "bırakıldığı": 2223,
  "bırakılmalı": 2224,
  "sorunları": 2225,
  "sorgulara": 2226,
  "uzantılı": 2227,
  "uzantıyı": 2228,
  "tasarıma": 2229,
  "tanımlanan": 2230,
  "tanımlanması": 2231,
  "tanımlanarak": 2232,
  "desenidir": 2233,
  "fırlatır": 2234,
  "fırlatarak": 2235,
  "fırlatmaz": 2236,
  "OpenID": 2237,
  "Uygulamanın": 2238,
  "Uygulamaların": 2239,
  "Uygulamadaki": 2240,
  "sunucudur": 2241,
  "sunucusu": 2242,
  "çağrılmazsa": 2243,
  "tılımcılar": 2244,
  "protokoldür": 2245,
  "protokollerini": 2246,
  "protokolüdür": 2247,
  "veritabanından": 2248,
  "veritabanının": 2249,
  "Dosya": 2250,
  "Docum": 2251,
  "Geçmiş": 2252,
  "Geleneksel": 2253,
  "GetService": 2254,
  "GetRequ": 2255,
  "Herkes": 2256,
  "Herhangi": 2257,
  "Nesine": 2258,
  "Nesnenin": 2259,
  "OrderCreatedEvent": 2260,
  "Output": 2261,
  "Tools": 2262,
  "açan": 2263,
  "açısından": 2264,
  "beğeni": 2265,
  "benzeri": 2266,
  "ginleşir": 2267,
  "görmesi": 2268,
  "gördü": 2269,
  "ketlerin": 2270,
  "mimar": 2271,
  "odaklan": 2272,
  "senkronize": 2273,
  "zordur": 2274,
  "zorunda": 2275,
  "Özellikle": 2276,
  "Özetle": 2277,
  "ölçekli": 2278,
  "şirketlerin": 2279,
  "leton": 2280,
  "ilmiştir": 2281,
  "mary": 2282,
  "elimdeki": 2283,
  "talebi": 2284,
  "talepleri": 2285,
  "tamamlamasını": 2286,
  "tamamlandığında": 2287,
  "yanıt": 2288,
  "istediğinde": 2289,
  "istediğimde": 2290,
  "isimlendirilir": 2291,
  "lemente": 2292,
  "ortam": 2293,
  "ortamı": 2294,
  "okumamızı": 2295,
  "çağırmak": 2296,
  "çağırarak": 2297,
  "kullanılmasına": 2298,
  "dizi": 2299,
  "dizisi": 2300,
  "alırsa": 2301,
  "seviye": 2302,
  "seviyeli": 2303,
  "seçenekler": 2304,
  "seçenekleri": 2305,
  "belirtilen": 2306,
  "belirginleşir": 2307,
  "sağlamaya": 2308,
  "kaydederek": 2309,
  "kaydedilmiş": 2310,
  "mekanizması": 2311,
  "mekanizmadır": 2312,
  "yöntemini": 2313,
  "çalıştığı": 2314,
  "çalıştıklarında": 2315,
  "çalışabilir": 2316,
  "çalışacak": 2317,
  "teknik": 2318,
  "teknoloji": 2319,
  "sonlandırmak": 2320,
  "sonlandırılabilir": 2321,
  "yüzde": 2322,
  "fazlası": 2323,
  "döndüren": 2324,
  "döndürmem": 2325,
  "dönüşü": 2326,
  "özelliklerini": 2327,
  "özelliğine": 2328,
  "özelliğidir": 2329,
  "Refresh": 2330,
  "Referen": 2331,
  "Readonly": 2332,
  "geliştirdiği": 2333,
  "geliştiricilerin": 2334,
  "offline_access": 2335,
  "tasarlanmı": 2336,
  "tasarlandığından": 2337,
  "alındı": 2338,
  "alınmıyorsa": 2339,
  "desenedir": 2340,
  "türetilen": 2341,
  "türetilmiştir": 2342,
  "programlamanın": 2343,
  "configursayonu": 2344,
  "configurasyonunu": 2345,
  "düşük": 2346,
  "düşünebilir": 2347,
  "standart": 2348,
  "değişkenlerde": 2349,
  "sağlayabilirler": 2350,
  "Dezavantajı": 2351,
  "Dezavantajları": 2352,
  "elemanları": 2353,
  "elemanlarını": 2354,
  "kapatılması": 2355,
  "kapatıldığında": 2356,
  "parçacığının": 2357,
  "IHostedService": 2358,
  "MongoDb": 2359,
  "StaticFiles": 2360,
  "WebApplicationBuilder": 2361,
  "girişlerini": 2362,
  "kgroundService": 2363,
  "model": 2364,
  "modelde": 2365,
  "noktada": 2366,
  "sitelerini": 2367,
  "değişikliklere": 2368,
  "Abstract": 2369,
  "Array": 2370,
  "Aynı": 2371,
  "Avantajı": 2372,
  "Bilgisayar": 2373,
  "BackgroundService": 2374,
  "CPU": 2375,
  "Categories": 2376,
  "Clear": 2377,
  "Column": 2378,
  "Central": 2379,
  "Embed": 2380,
  "Field": 2381,
  "FirstOr": 2382,
  "Framewor": 2383,
  "Foreign": 2384,
  "Geniş": 2385,
  "HashSet": 2386,
  "Implic": 2387,
  "Input": 2388,
  "IsReadonly": 2389,
  "Identity": 2390,
  "IServiceCollection": 2391,
  "Include": 2392,
  "Katılımcılar": 2393,
  "Koleksiyon": 2394,
  "Kalıcı": 2395,
  "List": 2396,
  "LifeCy": 2397,
  "Microsof": 2398,
  "Mevcut": 2399,
  "Nihai": 2400,
  "Offline": 2401,
  "Owner": 2402,
  "OptionsPattern": 2403,
  "Pdf": 2404,
  "Platformundaki": 2405,
  "Performans": 2406,
  "Primary": 2407,
  "Row": 2408,
  "Resource": 2409,
  "Redis": 2410,
  "Remove": 2411,
  "Saga": 2412,
  "Sonuç": 2413,
  "Sorgular": 2414,
  "Singleton": 2415,
  "Tutarlılık": 2416,
  "Task": 2417,
  "Tembel": 2418,
  "Transaction": 2419,
  "Unit": 2420,
  "UserCreatedEvent": 2421,
  "UseStaticFiles": 2422,
  "Virtual": 2423,
  "WordTo": 2424,
  "Yukarı": 2425,
  "alabilirim": 2426,
  "alamazsın": 2427,
  "aşırı": 2428,
  "byte": 2429,
  "burada": 2430,
  "bunları": 2431,
  "bölüm": 2432,
  "barındırma": 2433,
  "disk": 2434,
  "diyerek": 2435,
  "dünyaya": 2436,
  "exception": 2437,
  "eventual": 2438,
  "fiziksel": 2439,
  "güncellemek": 2440,
  "hücre": 2441,
  "hesaplamaları": 2442,
  "hepsi": 2443,
  "ibuted": 2444,
  "ifade": 2445,
  "kısalt": 2446,
  "kısımda": 2447,
  "kelimelerinin": 2448,
  "login": 2449,
  "müşterinin": 2450,
  "mümkün": 2451,
  "notification": 2452,
  "null": 2453,
  "object": 2454,
  "paylaşmak": 2455,
  "phanesi": 2456,
  "tarar": 2457,
  "tespit": 2458,
  "uğraşması": 2459,
  "ulaşamaz": 2460,
  "yelpazesi": 2461,
  "yaratır": 2462,
  "çözümdür": 2463,
  "çevrilir": 2464,
  "öğelerle": 2465,
  "ögelerin": 2466,
  "üstte": 2467,
  "İşlemler": 2468,
  "İnstagram": 2469,
  "şansı": 2470,
  "laştıran": 2471,
  "iredService": 2472,
  "internet": 2473,
  "instance": 2474,
  "ilişki": 2475,
  "ilişkilendirilmiş": 2476,
  "ekranına": 2477,
  "eklenebilir": 2478,
  "arkasında": 2479,
  "birbirinden": 2480,
  "birleştiren": 2481,
  "tabloda": 2482,
  "yazılım": 2483,
  "yalnızca": 2484,
  "yaygın": 2485,
  "etkilemeden": 2486,
  "etmeleridir": 2487,
  "istekleri": 2488,
  "isteniyorsa": 2489,
  "olmasına": 2490,
  "olmuştur": 2491,
  "kullanımını": 2492,
  "bildirirlerse": 2493,
  "vermene": 2494,
  "impelemente": 2495,
  "implementasyon": 2496,
  "kapsar": 2497,
  "önceki": 2498,
  "habersiz": 2499,
  "bağımsız": 2500,
  "bağımızlığın": 2501,
  "gerConsole": 2502,
  "geManagerConsole": 2503,
  "dijital": 2504,
  "duyarlar": 2505,
  "duyduğu": 2506,
  "arayüzü": 2507,
  "araçlarına": 2508,
  "altında": 2509,
  "kolaylaştıran": 2510,
  "sebep": 2511,
  "navigation": 2512,
  "uyumludur": 2513,
  "uygundur": 2514,
  "mesajın": 2515,
  "ürünleri": 2516,
  "kaybolabilir": 2517,
  "atomik": 2518,
  "uygulayarak": 2519,
  "uygulanmamışsa": 2520,
  "yönlendirir": 2521,
  "çalıştırmak": 2522,
  "Distributed": 2523,
  "kütüphanesi": 2524,
  "sonuçlanana": 2525,
  "sonraki": 2526,
  "gerektirebilir": 2527,
  "yönettiği": 2528,
  "failure": 2529,
  "yerleştirilir": 2530,
  "arızası": 2531,
  "StoppinToken": 2532,
  "erişebildiği": 2533,
  "erişilebilmeyi": 2534,
  "başlamıştır": 2535,
  "tüketmesini": 2536,
  "türevlerinde": 2537,
  "özgüdür": 2538,
  "gerçekleştirmezse": 2539,
  "gerçekleştirebilme": 2540,
  "gerçekleştirmelerine": 2541,
  "Processing": 2542,
  "Prototype": 2543,
  "ayıralım": 2544,
  "aygıtları": 2545,
  "applicationDbContext": 2546,
  "hızlandırır": 2547,
  "arttırımı": 2548,
  "Assemblye": 2549,
  "Eventually": 2550,
  "bekletilir": 2551,
  "edemezsin": 2552,
  "stoppingToken": 2553,
  "Dağıtılmış": 2554,
  "alışverişini": 2555,
  "alınacağını": 2556,
  "optimize": 2557,
  "packageManagerConsole": 2558,
  "ekleyebiliyoruz": 2559,
  "kullanmazsak": 2560,
  "edilmelidir": 2561,
  "StreamReader": 2562,
  "StreamWriter": 2563,
  "Authorization": 2564,
  "Mesajı": 2565,
  "boyunca": 2566,
  "controller": 2567,
  "düzenlemeleri": 2568,
  "fırlatan": 2569,
  "görevden": 2570,
  "gösteren": 2571,
  "EntityFramewor": 2572,
  "handling": 2573,
  "işleneceğini": 2574,
  "döngüsünün": 2575,
  "bırakılmalıdır": 2576,
  "sunucusudur": 2577,
  "Document": 2578,
  "GetRequiredService": 2579,
  "mimarileriyle": 2580,
  "odaklanan": 2581,
  "Referenced": 2582,
  "tasarlanmıştır": 2583,
  "düşünebiliriz": 2584,
  "Embedded": 2585,
  "FirstOrDefault": 2586,
  "Implicit": 2587,
  "LifeCyle": 2588,
  "Microsoft": 2589,
  "WordToPdf": 2590,
  "kısaltması": 2591,
  "ulaşamazsın": 2592,
  "implementasyonlarında": 2593,
  "EntityFramework": 2594,
  " ": 2595
}