{"▁sound": 5057, "▁paar": 47013, "▁lg": 42206, "rente": 18913, "▁поба": 164351, "▁मंदिरों": 134603, "ηγ": 138532, "mathop": 106864, "▁épouse": 196931, "▁walmart": 189452, "▁تل": 63498, "Commun": 196269, "▁dinding": 153187, "tl": 24709, "ナトリ": 143792, "▁oznac": 135015, "▁جانتے": 157697, "▁Wooden": 55860, "बित": 43453, "▁mus": 2431, "▁Sequoia": 209741, "appara": 236216, "▁胡": 229937, "▁commissioning": 93669, "▁АК": 181298, "▁degrees": 10674, "刧": 255858, "andal": 25484, "LW": 103548, "▁navbar": 35974, "Lead": 66825, "៖": 241946, "粧": 242142, "▁ঘটনা": 35856, "<unused4427>": 260329, "▁ulaş": 94158, "shirt": 18123, "δι": 92632, "▁Curator": 195485, "minus": 38688, "▁ಅನುಪಾತ": 195055, "쿼": 245153, "▁atract": 94634, "▁والك": 110922, "▁executive": 12153, "▁Arlington": 76174, "▁Newsom": 176629, "SRPParaPkg": 61251, "archiviato": 154433, "▁Beob": 198936, "▁weinig": 171223, "▁Garo": 203960, "anigans": 193808, "▁withered": 209110, "加熱": 163183, "Empty": 11447, "▁cupcake": 85931, "virtual": 48446, "▁führ": 102863, "Ngoài": 158520, "enderung": 203662, "▁quinze": 175330, "𒍨": 250636, "nutrient": 205700, "岡": 240034, "▁फर्निश्ड": 222929, "▁Aster": 89006, "▁enroll": 31205, "▁intellect": 53605, "ombang": 169385, "lau": 96418, "▁BASF": 150060, "ቢ": 240468, "かは": 175015, "data": 1516, "箸": 244318, "▁Brad": 20014, "▁нужны": 165648, "▁चलते": 28428, "gga": 85062, "▁SAS": 59234, "𝘢": 245161, "Ξ": 242859, "▁UNION": 126094, "▁exposes": 81225, "読": 239551, "▁क्रांतिकारी": 159923, "局面": 185917, "▁Poi": 101787, "SECURITY": 194936, "▁टॉपर": 155447, "▁বাব": 67661, "▁சர்வதேச": 152777, "▁phleg": 232205, "쳐": 241029, "▁')": 24411, "▁merging": 66486, "▁लोकल": 184408, "itemap": 98305, "രുവന": 177746, "▁ingenuity": 101250, "auern": 205589, "▁Fecha": 144788, "▁diaper": 88099, "▁อ่าน": 130962, "ʄ": 254278, "▁Sea": 12991, "▁retrograde": 152148, "▁Phrases": 179162, "▁caldo": 154305, "аст": 167114, "ไม่ต้อง": 225806, "▁আইডিয়া": 158483, "▁inherent": 32481, "▁優": 198340, "ਇ": 239848, "▁blunt": 63696, "ኪያ": 223681, "▁zul": 103080, "▁mushrooms": 38391, "▁Shibata": 222589, "<unused755>": 256657, "▁Damage": 68957, "<unused2584>": 258486, "𐰲": 254993, "▁বিশ্ববিদ্যাল": 31827, "▁negotiations": 28125, "র্": 2008, "Ċ": 247723, "oted": 8140, "╼": 255645, "த்திரை": 178444, "ordinal": 170082, "odymium": 179471, "acola": 161901, "Geolocation": 145370, "rolo": 107012, "const": 1987, "▁Schlü": 95265, "▁ik": 7442, "▁blackout": 157650, "▁प्रश्न": 14264, "endants": 28465, "িক্ষে": 146177, "▁व्हाउचर": 207743, "bedingungen": 99646, "▁artistry": 119496, "▁மாவ": 40485, "▁liberd": 131549, "▁Painting": 45004, "▁Spade": 224601, "▁Drupal": 145796, "▁invitation": 25417, "र्ड": 9880, "▁bravo": 220620, "希望": 21226, "ektion": 101159, ";\\;\\": 144657, "amarine": 131747, "▁संस्कृति": 67465, "istle": 32047, "▁comma": 55348, "Hir": 120450, "▁Consulta": 195899, "राणिक": 154830, "Dur": 38682, "rivation": 68224, "▁nœ": 213271, "▁Tatiana": 191057, "砌": 245186, "▁familiari": 230667, "▁प्रार": 44646, "▁बाब": 145007, "рее": 66644, "▁conductores": 190374, "▁Dr": 3587, "▁июня": 71555, "▁destacó": 140371, "▁raconte": 168158, "▁fares": 67802, "嫻": 251361, "appoint": 51180, "acyjny": 192524, "edra": 199523, "風": 238740, "▁woll": 62177, "▁צו": 109970, "died": 166063, "▁iniciado": 226108, "▁internationally": 35595, "롯": 242118, "▁unbear": 122636, "Má": 219745, "ทรง": 152488, "힌": 243089, "ина": 90525, "pergillus": 162325, "urlpatterns": 143665, "Biology": 144131, "▁semestre": 91971, "分手": 177407, "▁.+": 116268, "豚": 242179, "いたしました": 227246, "▁Creature": 230795, "▁Writer": 62240, "死去": 235759, "<unused5418>": 261320, "▁होतो": 106619, "</table>": 176, "ψει": 190343, "▁विषय": 30810, "荫": 245319, "▁collocation": 220502, "haram": 113457, "▁पप्पू": 188551, "्युन": 149278, "ointed": 106079, "▁tbl": 91074, "組": 238578, "<unused5327>": 261229, "▁scint": 63600, "▁combinatie": 210153, "▁invests": 122425, "正しい": 165316, "▁Shalom": 185929, "வையில்": 152535, "<unused243>": 256145, "evenly": 211344, "வில்": 16138, "▁सुनवाई": 83435, "▁Ott": 25246, "klus": 97629, "🛫": 251797, "жене": 154276, "ajjati": 96524, "plemented": 35664, "工場": 138490, "wrap": 12368, "▁nuclé": 157462, "反复": 146987, "▁adaptarse": 235298, "▁Verkehrs": 225808, "راضي": 187971, "▁UIF": 135948, "ansky": 118530, "வுக": 45443, "▁grabs": 74651, "λή": 44723, "MADE": 227275, "▁codons": 175085, "⇧": 251497, "▁govern": 7447, "მატ": 205539, "▁Camera": 24526, "▁บ้าง": 198104, "MAC": 77419, "▁필요": 51906, "支撑": 106122, "▁Company": 6503, "∴": 243331, "▁forskjellige": 230031, "▁descuentos": 201647, "▁line": 1757, "▁ناب": 186694, "▁tận": 82792, "▁ingot": 224009, "读": 238813, "urance": 5598, "▁shrank": 205152, "▁Advisors": 107626, "▁attorney": 15646, "ാരോഗ്യ": 177885, "▁troubling": 99670, "▁jednocześnie": 197589, "เห": 34000, "▁eles": 32578, "優勝": 104626, "وسک": 91455, "▁آقای": 181077, "éreo": 168600, "árl": 218363, "sums": 174755, "▁কবিতার": 221765, "gente": 215922, "Ka": 38112, "▁SRPGoGet": 72528, "▁tarik": 232895, "▁வைத்திய": 185152, "видно": 147263, "ungan": 19111, "▁auquel": 124199, "](\\": 128667, "orld": 3156, "опера": 128514, "▁llama": 43507, "('$": 144248, "闿": 247437, "▁alberga": 186378, "▁आजम": 214518, "▁handels": 233254, "看向": 133547, "▁illogical": 214022, "记载": 202110, "▁stabile": 184096, "yar": 34378, "▁ছিলেন": 20902, "▁aparece": 56837, "劇": 239904, "reuses": 213137, "saya": 197155, "｡": 241629, "▁Carpath": 117980, "▁нож": 204422, "▁zod": 44165, "▁tani": 171032, "Joan": 175080, "▁Марафон": 193004, "▁مدينة": 111033, "▁storage": 6310, "▁αρκε": 213993, "▁በማ": 92221, "▁accessory": 44182, "▁poly": 6356, "▁novedad": 214856, "ಗಳ": 8856, "▁মানুষ": 11144, "Explained": 235520, "Bra": 67400, "<unused4965>": 260867, "Particular": 163170, "▁इलाहाबाद": 141387, "夻": 255522, "takes": 101108, "▁Accessory": 170564, "▁чего": 53388, "ὤ": 253879, "sx": 101308, "මේ": 155294, "▁Edward": 19848, "▁accomplice": 172303, "लाइड": 96077, "<unused3627>": 259529, "鹊": 246618, "▁каза": 86411, "È": 239344, "𒐼": 253115, "uminescent": 202598, "variation": 193716, "▁كم": 47759, "▁kötü": 143619, "▁Fel": 25345, "▁&'": 166351, "ovaná": 121856, "ปัญหา": 136239, "<unused2981>": 258883, "▁unspecified": 116433, "室": 238593, "▁ав": 38594, "ющая": 51658, "Fcm": 48802, "▁LaSalle": 220561, "▁homeschool": 121654, "▁München": 67772, "<unused304>": 256206, "κή": 109010, "冀": 244566, "(!(": 117583, "⤷": 254676, "იმე": 157777, "▁phenomena": 24250, "<unused5537>": 261439, "orbit": 50657, ">^": 181743, "সী": 35307, "▁तपास": 186761, "▁प्राइवेट": 105826, "▁சிலையை": 203727, "会い": 226391, "뱃": 247580, "▁psa": 162154, "▁modified": 12269, "▁escog": 137009, "▁cump": 122020, "▁McCormick": 117880, "<unused1665>": 257567, "chapters": 222758, "▁prop": 4007, "▁অর্থনীতির": 178722, "▁samband": 165664, "▁Ivy": 74776, "▁Vampire": 124089, "有点": 57848, "▁brigade": 86390, "感が": 131171, "affichage": 156626, "ចាយ": 224138, "Brexit": 177884, "▁Mendez": 229087, "ιο": 19220, "boots": 109185, "repe": 102060, "プレイ": 66566, "▁Gabon": 157572, "▁formats": 27857, "▁groupBox": 136309, "ፋ": 240252, "’,": 13536, "▁gyn": 175671, "moto": 208343, "▁молодых": 186840, "▁பரபர": 159954, "▁Redwood": 147510, "▁Xmas": 122584, "▁berücksicht": 156700, "▁वर्षा": 47316, "▁CLEAN": 120844, "▁Calculation": 86249, "▁દરમિયાન": 117693, "▁Lehenga": 216748, "pmod": 158606, "リア": 17321, "']['": 18244, "▁geöffnet": 178119, "▁ARTS": 177162, "<unused1812>": 257714, "▁eher": 67353, "▁darin": 110995, "▁standard": 4077, "▁실시": 142783, "▁Sapp": 78651, "▁Ninth": 92566, "流畅": 219786, "▁သည်": 213903, "▁tová": 164915, "▁optics": 60596, "▁একসাথে": 174041, "<unused1315>": 257217, "Parl": 236474, "online": 23557, "▁Guinness": 94289, "▁اکت": 140538, "▁phantom": 91608, "<unused3117>": 259019, "▁ಏಕೆಂದರೆ": 210874, "carbam": 184428, "▁opnieuw": 155458, "labelText": 149654, "umn": 2162, "": 251541, "<unused315>": 256217, "▁मुफ्त": 82716, "ảy": 45103, "▁ge": 2676, "▁;-)": 124472, "▁oblik": 168078, "ಗಳಿಂದ": 86023, "江南": 181982, "Roe": 214013, "▁चैंपियन": 75130, "▁replete": 199137, "▁Provinz": 206530, "ಬ್": 38280, "ponden": 235656, "ಕೋ": 169605, "醫師": 194883, "起き": 156310, "ద్ద": 44672, "国": 237341, "ះ": 239100, "NoSuch": 103894, "▁ENGLAND": 191490, "▁നഷ്ട": 219606, "𒂖": 250429, "▁:": 1017, "SiO": 74161, "льзова": 13542, "経過": 158623, "▁सफ़ेद": 147945, "acco": 18203, "▁พัน": 182165, "▁baryon": 87073, "ऍ": 242395, "Ⓡ": 242816, "Creator": 82917, "اءِ": 158836, "▁посмотре": 216710, "<unused375>": 256277, "▁குடியிருப்ப": 204031, "牒": 250976, "▁thisTrial": 219900, "▁>;": 212530, "▁Determines": 165532, "ঘ্রই": 104555, "实验": 46607, "тира": 167123, "▁কারফিউ": 215083, "▁launched": 12073, "▁supporter": 55404, ">**": 204329, "▁Stad": 62083, "ждён": 134286, "▁MRT": 113164, "AD": 2466, "▁खुले": 81122, "▁comm": 1103, "▁grammaticality": 178414, "▁scholar": 19224, "▁Hanoi": 112171, "▁Kerr": 38272, "Mechanism": 199058, "▁Ridley": 149104, "▁የም": 120128, "▁▁▁▁▁▁▁": 143, "▁Clips": 195357, "▁houseplants": 210045, "inen": 8979, "rę": 118849, "Consumer": 38168, "onia": 13577, "🇵": 245707, "三星": 141589, "▁학": 37238, "一副": 220374, "▁전부": 199035, "Indigo": 197031, "Agar": 176345, "▁Journalists": 154877, "▁uj": 53085, "EIS": 183892, "ruk": 34444, "▁voies": 118507, "▁चिल्": 105365, "tocol": 24248, "▁blackberry": 79758, "astar": 114375, "▁Wanda": 115004, "sendLog": 95045, "▁റേ": 196012, "acti": 158915, "▁ውጤ": 178011, "▁ਵ": 27543, "fti": 175258, "▁популација": 177805, "▁بت": 18311, "▁reasoned": 109014, "שת": 60970, "▁Emma": 36569, "▁Plastics": 101533, "중에": 138025, "▁বাধ্যতামূলক": 230685, "▁日": 15215, "▁végétation": 178727, "▁negativa": 102543, "î": 237411, "蔔": 245210, "airro": 93792, "wild": 44363, "ہیں": 73464, "лити": 168659, "▁ऑनलाइन": 21423, "Preprocessing": 229267, "aziz": 199395, "▁سالم": 173570, "▁RCS": 184795, "ᇂ": 252404, "▁বার": 22962, "▁Infin": 143439, "▁й": 17765, "▁Categories": 51552, "▁escaped": 41685, "BUL": 108588, "▁Disc": 42263, "▁Taman": 108599, "愔": 253346, "<unused4876>": 260778, "Ult": 40349, "<unused849>": 256751, "linic": 128311, "therapeutic": 235097, "▁stalking": 150940, "高手": 166125, "Ev": 12993, "ванный": 235905, "Von": 85764, "攏": 248041, "▁cobbled": 223939, "▁بي": 15675, "▁Inform": 24326, "вается": 27487, "▁dhan": 104067, "螭": 252029, "жал": 156448, "▁Größe": 112880, "㫙": 253811, "angnya": 87832, "стно": 82280, "▁ਦਿ": 209642, "▁ritor": 137179, "summ": 181759, "ētu": 208273, "▁හා": 91091, "": 252504, "▁университета": 128472, "صة": 75269, "▁brokers": 61152, "Ва": 51869, "▁cuyos": 159495, "EDES": 235134, "<unused6133>": 262035, "趾": 245355, "▁nguyên": 39265, "▁Etiquetas": 206283, "▁दशक": 86046, "▁Tbilisi": 149135, "Frank": 33267, "▁despicable": 210192, "▁بلی": 225723, "が出て": 116854, "<unused1487>": 257389, "▁rô": 103695, "▁impressing": 215360, "桨": 247698, "▁সেট": 117589, "Infof": 174625, "▁aran": 184231, "Rc": 170098, "Standards": 206240, "😰": 248919, "烏": 242254, "▁popul": 33780, "lllll": 140561, "▁servitude": 205009, "▁pint": 23866, "غيل": 134675, "๋ยว": 87286, "▁ECU": 72442, "ximity": 123428, "Incident": 110625, "▁UML": 126238, "▁proposal": 15523, "ध": 236986, "larında": 77438, "posTocco": 193798, "𝗂": 251013, "▁cuantit": 217102, "▁covariance": 58071, "нд": 10605, "▁परिस": 47462, "ব্যাপ": 91475, "組成": 168658, "▁tpVar": 90681, "▁Đường": 140310, "▁adherents": 188153, "miyor": 210798, "▁కుమార్": 210200, "(\"../": 33841, "▁exuber": 123408, "ная": 6008, "不要": 25165, "▁Callback": 56452, "▁yas": 109330, "▁Watershed": 161583, "▁মুখের": 88210, "atge": 152513, "mee": 77899, "zas": 25866, "藩": 243424, "▁divide": 19226, "olazione": 216212, "Não": 62907, "▁rally": 28708, "∗": 241305, "فون": 229896, "طة": 56105, "▁stereotypical": 180777, "());": 3466, "dart": 11680, "scht": 157524, "نيف": 162982, "🏛": 252432, "▁Jharkhand": 148949, "▁कि": 1312, "нче": 177409, "▁NumPy": 224204, "किम": 234940, "ilt": 3454, "▁frère": 130938, "▁अचार": 212390, "▁고": 17798, "nesium": 32992, "▁lob": 24297, "▁transmutation": 177293, "◐": 251185, "えて": 19230, "숄": 248682, "Hound": 195555, "แยก": 212652, "▁종류": 124269, "sá": 151866, "▁admissions": 59586, "énées": 160370, "Sequential": 34935, "▁चौराहे": 233461, "▁ユニ": 124982, "stwo": 121565, "▁predecess": 37049, "Wey": 147309, "▁primitive": 34986, "▁lieutenant": 65522, "▁марта": 59118, "▁niego": 117521, "▁rembour": 108365, "<unused3900>": 259802, "導數": 234587, "𒇟": 253004, "▁rightful": 135701, "jot": 160374, "行业": 31502, "▁pytanie": 203715, "ล็อก": 210893, "”、": 187956, "▁маник": 204785, "利亚": 115361, "<0x6E>": 348, "资源的": 227710, "▁starter": 32013, "▁علیحد": 234206, "▁phen": 7836, "teborg": 170743, "▁geometry": 18271, "就好了": 187140, "▁muslim": 56393, "▁DLL": 106238, "▁hummingbird": 174645, "▁আয়নগুলি": 134119, "Historically": 165046, "َی": 159619, "elser": 88286, "▁Umbrella": 151618, "sel": 3120, "信息": 13289, "这种情况": 151584, ">`": 67234, "rarse": 135456, "▁nghiên": 98514, "▁eleg": 11699, "mobilpay": 189202, "▁Garry": 144901, "ďaka": 224004, "Finder": 80843, "▁impress": 11594, "▁ACB": 195568, "क्तिक": 206781, "pasar": 222305, "Barrier": 155228, "ээр": 162218, "Immun": 113815, "▁เหลือ": 173947, "Calculation": 120609, "Ｘ": 242543, "▁Params": 151677, "▁vendedores": 210877, "▁PA": 13187, "iga": 8049, "▁rebounds": 53632, "色々": 171987, "ριν": 81849, "фом": 208605, "वारी": 39922, "mic": 10205, "incerely": 108929, "▁তরফে": 224029, "Sid": 83307, "▁フレ": 115330, "フト": 25636, "▁番": 52949, "𝔬": 255458, "▁anos": 22598, "anskrit": 221424, "▁Institution": 53156, "▁Dabei": 82707, "▁اد": 25979, "▁transducers": 211677, "▁филосо": 82786, "▁Noble": 49121, "低温": 226985, "▁misery": 67735, "FromPda": 198432, "冷的": 206306, "▁Sut": 68697, "▁eventdata": 63228, "▁Exerc": 149167, "annot": 7927, "▁hur": 12475, "▁صفح": 135308, "سٹر": 163985, "等着": 191144, "页面": 38646, "aac": 190895, "<unused2011>": 257913, "▁Stationery": 228686, "▁Bhai": 161348, "▁他们": 186011, "今年的": 205122, "▁פרו": 231193, "▁delinquency": 196909, "它们的": 188947, "▁beyaz": 157748, "▁atthakathac": 215136, "▁시험": 116199, "})_{": 33121, "onato": 67261, "▁PROF": 62510, "<unused5667>": 261569, "leaning": 179228, "▁ACHIE": 134059, "Closeup": 36245, "▁trader": 58292, "▁~$": 202721, "▁Brest": 159208, "▁정상": 148853, "ക്": 2716, "<unused4111>": 260013, "侍": 242550, "▁flour": 18763, "▁ListTile": 143046, "▁Caen": 221394, "▁අවශ්‍ය": 229244, "▁meg": 13073, "безпе": 90716, "▁Ста": 34787, "▁Canning": 199281, "▁isot": 25476, "▁précisément": 166334, "▁Anxiety": 106192, "▁Batu": 154374, "▁காவல": 147973, "▁هیڅ": 167866, "▁पंतप्रधान": 193179, "Atlantic": 95956, "▁жить": 113618, "▁лоша": 180753, "▁dobu": 168125, "DetailUI": 95553, "这一点": 120695, "▁terletak": 111190, "\">=": 80383, "▁surv": 6798, "▁iglesia": 93886, "▁untersucht": 235738, "▁dried": 19555, "▁காலத்தில்": 131872, "▁Koran": 226309, "▁unanim": 40562, "ственные": 58021, "▁noms": 95316, "ContentType": 59027, "▁vuelos": 186190, "▁Crom": 74854, "Collins": 127217, "SHO": 205974, "nova": 57444, "ℎ": 249461, "▁blancs": 163964, "dup": 46047, "Prompt": 70517, "▁lives": 6176, "ផល": 87225, "欧": 239547, "▁fleshy": 187426, "ButtonBar": 160534, "▁もう": 93102, "▁purple": 16045, "▁Такой": 208932, "▁NYSE": 200273, "▁Emotions": 159149, "▁گیم": 165470, "▁현": 31042, "apagos": 173130, "侏": 246395, "▁Jot": 196516, "▁alegria": 182099, "icono": 174830, "▁বাহিনীর": 47837, "كتب": 38693, "▁မိ": 190565, "▁চাক": 55275, "𒅃": 252961, "▁persuas": 71062, "iramente": 114787, "▁normal": 3867, "ᒻ": 251456, "▁پڑ": 38000, "岫": 250214, "ូច": 82721, "ーン": 20184, "ိမ်": 146683, "ไว": 211077, "Ｈ": 241912, "न्हा": 41758, "▁dérou": 102228, "ჭ": 240715, "ურთ": 136529, "▁Invasive": 220387, "▁своє": 146312, "damian": 35167, "Surviv": 138735, "fla": 198779, "▁丨": 56775, "<unused4984>": 260886, "ided": 2410, "Latitude": 104548, "bolos": 128880, "いましたが": 106765, "鉛": 243437, "igna": 139541, "ናት": 114002, "Farmer": 143336, "eyim": 222529, "来店": 223027, "▁Friend": 27721, "acelet": 74142, "Hãy": 217366, "üge": 138889, "▁SSm": 175745, "▁BAFF": 164434, "▁заповед": 225483, "pt": 693, "▁Tapi": 69310, "▁este": 4462, "getSize": 95945, "▁Kati": 198331, "▁পাকিস্তান": 7290, "Ꭴ": 244678, "▁overwhelm": 118401, "▁Biraz": 227825, "स्त्रा": 198614, "▁police": 5589, "▁handleClick": 192622, "<unused4542>": 260444, "▁Ethiopia": 53313, "▁கருத்து": 105856, "诃": 248960, "▁décl": 97535, "vercel": 151294, "▁Aeg": 161966, "';": 2134, "▁বলিউড": 172125, "▁احترام": 202206, "到现在": 187749, "ಲ್": 6226, "cellSize": 206435, "BuildContext": 37831, "Qty": 93280, "▁/></": 200385, "dude": 232907, "▁безпе": 166494, "▁Puis": 77676, "セレ": 210410, "▁ауто": 79347, "Selon": 195031, "▁unique": 4709, "▁দর্শকদের": 168286, "▁overhauled": 231565, "▁plantas": 58443, "▁应用": 158134, "▁نتیجه": 142657, "perature": 15401, "▁retroactive": 183188, "istische": 104445, "▁Riyadh": 145339, "▁পড়িল": 139177, "▁articol": 124523, "▁Rustic": 163636, "▁जायेंगे": 122504, "▁verbessert": 229266, "▁GIS": 82004, "▁disparu": 197161, "мент": 20063, "▁measured": 8434, "LastName": 79705, "ตรา": 159217, "বন্দ": 87152, "▁aurait": 67219, "▁ChatGPT": 139114, "▁teard": 161167, "▁ചെയ്യുന്ന": 112764, "гих": 214941, "withstanding": 38287, "▁TEA": 149851, "▁دستگاه": 91589, "▁BULLETIN": 100227, "▁колек": 126802, "▁ery": 48632, "ություն": 72444, "▁hydropower": 149614, "▁njeg": 54221, "▁जवाब": 31496, "<unused224>": 256126, "▁Pugh": 188453, "Pil": 110156, "▁amends": 135734, "▁رفت": 66979, "PerPage": 157240, "avil": 157566, "▁voltmeter": 147684, "▁बताना": 72105, "differential": 92520, "𒉠": 250686, "posals": 120675, "ेंद्र": 12525, "▁Substit": 210348, "▁छात्र": 20597, "icultural": 48467, "acijos": 161532, "▁badania": 186673, "▁патри": 173502, "bür": 139785, "▁instructional": 68360, "نساء": 173998, "▁subtracted": 92773, "排列": 180030, "]^{\\": 99214, "<unused2601>": 258503, "▁Далее": 178063, "zień": 147782, "azza": 76052, "earing": 14296, "▁admirably": 154019, "▁Sotheby": 197623, "नीर": 145648, "▁گھ": 67490, "いっぱい": 200548, "▁conçu": 135802, "▁বিরুদ্ধে": 25518, "Attached": 91781, "第六": 112743, "ชนะ": 149221, "▁kree": 148284, "譴": 249986, "Javadoc": 161906, "▁СПб": 145992, "itals": 15359, "训": 239488, "▁količ": 129554, "▁conversación": 177406, "ymptotic": 161763, "effectiveness": 123201, "・・・": 34834, "vaegir": 132767, "▁kisses": 100271, "Simpson": 186992, "▁แม": 130116, "狍": 254954, "supabase": 236201, "▁virtualization": 164560, "▁marvellous": 142599, "▁Helic": 94989, "<unused2450>": 258352, "hotels": 202796, "▁হাঁ": 58231, "▁Routine": 75027, "水电": 228427, "杭": 241753, "斎": 243371, "гыз": 52220, "◢": 245556, "▁perfekte": 169132, "▁sloth": 203229, "▁простой": 136057, "▁играть": 98181, "𝔦": 254865, "▁calor": 25957, "▁stepwise": 145783, "▁Леон": 174939, "ulemon": 220325, "ruby": 64422, "inhos": 45595, "簑": 255881, "▁ರಾಷ್ಟ": 201668, "Dealer": 123787, "▁осмо": 173389, "AAP": 121074, "</img>": 230, "рақ": 235952, "KURZBESCHREIBUNG": 137913, "額": 240017, "ඈ": 250346, "▁তুলে": 36618, "回り": 172507, "▁electrónico": 59116, "▁mensal": 185003, "тни": 110164, "冒险": 153996, "▁இந்திய": 38700, "▁APPEND": 164245, "▁Advisory": 31379, "Clinic": 183716, "▁coss": 154760, "াচিত": 60148, "▁Fonbet": 116450, "klore": 76473, "▁ε": 5722, "する": 4042, "▁SLOT": 117020, "▁odlu": 171045, "▁myśl": 189264, "urney": 177108, "▁নূর": 139962, "▁Transitional": 132833, "▁Complimentary": 224090, "triangleq": 88079, "▁पग": 202324, "▁vanguard": 132942, "姫": 242757, "▁Иң": 160968, "FIRST": 39045, "▁หมด": 123823, "▁обо": 19905, "▁shortcoming": 216870, "வாய": 91064, "ans": 743, "▁Plea": 225122, "toLocaleString": 138049, "Mozilla": 106093, "▁تقوم": 182295, "𒈖": 250545, "はお": 77051, "浔": 247248, "婍": 252384, "兽": 241251, "财务": 116182, "▁જેમાં": 126749, "▁Some": 4943, "=\"_": 21287, "▁świat": 93918, "▁lind": 70769, "▁免": 155496, "apache": 11491, "itational": 134930, "DEST": 68168, "▁தெரியும்": 155816, "▁Shots": 206237, "discovered": 223587, "▁Gates": 46128, "bromo": 106477, "alogy": 91336, "MediaStore": 151994, "▁formality": 159325, "商品的": 205306, "ంద్": 232737, "德國": 218980, "▁Abbe": 204189, "·": 249017, "▁Gallardo": 213648, "▁Rivers": 36835, "▁செல்லும்": 112473, "<unused3321>": 259223, "<unused5945>": 261847, "▁হুম": 57277, "alloy": 135885, "▁papillary": 221260, "潰": 243343, "致力": 129576, "▁janu": 122989, "ॠ": 246180, "▁Mej": 136718, "istos": 74526, "惶": 245645, "اونلوډ": 85870, "▁thereunder": 169067, "<unused5149>": 261051, "状况": 88450, "GV": 60572, "司令": 189968, "packs": 127966, "▁cierre": 93542, "▁behalf": 17301, "▁Ocho": 193489, "cancelled": 150960, "ektiv": 65355, "▁হওয়ার": 84968, "▁पुस्तक": 57547, "▁몸": 100761, "cez": 138222, "▁plong": 145322, "Evil": 161317, "▁sugi": 185726, "Lc": 207328, "▁plat": 28188, "▁disclosing": 137066, "▁সক": 67182, "겸": 243502, "Patient": 52420, ".\",[(": 172174, "▁презен": 109695, "▁życiu": 213566, "▁العد": 43523, "ّر": 184941, "<unused4373>": 260275, "▁rough": 10887, "<unused4267>": 260169, "carpet": 149686, "superclass": 198544, "წი": 143826, "▁PRODUCT": 50034, "▁autoradi": 226955, "Annot": 36336, "▁нара": 221750, "▁রোগী": 147879, "हली": 62198, "▁attached": 11744, "公众号": 157629, "▁방식": 103907, "▁empire": 38613, "▁\")": 15825, "ocrite": 222418, "▁চূ": 91489, "ICO": 34379, "▁calling": 11687, "vast": 78539, "ോഷ": 50946, "Dec": 8724, "▁Vieux": 228620, "▁vreme": 128060, "▁चाकू": 226249, "്രി": 106852, "deliver": 177799, "▁তেমনই": 145227, "<unused1102>": 257004, "oer": 205621, "长老": 155674, "軽": 239791, "ండి": 25459, "▁ध्व": 45517, "▁happiest": 113807, "▁वरि": 58846, "▁simbol": 71871, "▁утеп": 235811, "<unused318>": 256220, "▁Spo": 111172, "ร็จ": 118574, "▁Brink": 127076, "▁gráf": 38803, "▁besten": 62218, "▁runApp": 102432, "▁handleChange": 117953, "triggers": 154125, "েনার": 47858, "▁alex": 76383, "▁Barber": 69568, "▁реша": 94122, "▁pensar": 51819, "▁MÉ": 162209, "▁hombre": 31672, "▁вали": 184859, "Invoice": 69572, "▁drunken": 84908, "▁Maest": 207571, "야": 238215, "重點": 173229, "תה": 228070, "Très": 164844, "▁коды": 184347, "▁najman": 228130, "ídos": 84935, "<unused3073>": 258975, "řejmě": 192536, "ネ": 237972, "feu": 167653, "生まれた": 214607, "Сред": 177372, "▁amigos": 32297, "<unused1535>": 257437, "▁Reprinted": 189624, "अस": 171922, "NEW": 23807, "ajan": 38718, "▁Cutler": 155780, "▁losses": 14672, "achev": 122886, "▁સંપ": 187274, "▁అయితే": 75556, "▁ತುಂಬಾ": 196619, "▁کی۔": 102099, "▁Two": 8512, "▁фанта": 137227, "ニュ": 55273, "▁Mushroom": 147532, "▁goatee": 127209, "ರಿ": 13875, "▁victorious": 82865, "▁agitated": 111200, "▁potenza": 181931, "▁निधन": 75916, "avnom": 199551, "恶": 240306, "▁উন্নতির": 205607, "饿": 242692, "▁tightness": 148814, "खबर": 173117, "▁Ethan": 71384, "emed": 18392, "ല്ലാതെ": 224377, "temp": 7617, "žal": 234134, "▁slechts": 158198, "arantee": 13767, "ゐ": 250316, "洗衣": 202249, "▁Albion": 115976, "▁שכ": 217260, "/__": 68536, "ídio": 188093, "▁saveData": 221501, "btn": 5652, "▁Angel": 25390, "chrome": 23912, "▁komm": 70463, "▁Essa": 56654, "arsch": 144805, "아야": 143734, "▁Neg": 15999, "▁Mandalorian": 213045, "▁epist": 116363, "PRNewswire": 136520, "▁mame": 188577, "摒": 248249, "楽天": 70624, "▁bumps": 74857, "رحمن": 218472, "▁chaff": 172370, "▁Phas": 215217, "▁উহার": 109157, "枣": 244616, "ളം": 103181, "tb": 33395, "IDS": 26538, "▁Anwar": 129896, "package": 3617, "Italy": 65859, "insta": 149516, "Legacy": 117676, "<0x4F>": 317, "thanks": 43849, "aquin": 124391, "𒆜": 246803, "Kap": 66123, "▁मुं": 220161, "▁jue": 28895, "▁Love": 11543, "hypothesis": 227720, "▁ры": 28427, "<unused1961>": 257863, "்க்": 172793, "▁Mell": 58369, "现代": 54854, "▁abband": 158408, "ibouti": 177835, "▁ভূমিকম্প": 190811, "Certified": 157061, "Hundred": 129790, "▁डीडी": 226673, "观": 238654, "▁From": 4934, "▁scont": 236246, "▁serait": 46527, "▁Favor": 117241, "▁criss": 172336, "<unused1359>": 257261, "▁pretty": 5497, "▁после": 13318, "wara": 78786, "enste": 206378, "▁Yel": 127503, "▁الصوره": 188211, "▁Weltkrieg": 158813, "<unused4313>": 260215, "ృష్ణ": 185994, "▁Improving": 106291, "▁seguridad": 29293, "kennung": 206971, "ডেল": 68241, "▁പോലീസ്": 175350, "▁udd": 112820, "▁SDK": 50405, "▁complic": 9901, "なくて": 81178, "▁mae": 98617, "▁chans": 197969, "▁ach": 3809, "ায়ী": 43270, "▁Phase": 25348, "வரை": 51549, "▁मिलियन": 84127, "▁Indexes": 81068, "▁giddy": 234895, "线的": 123329, "▁reprint": 120679, "▁меку": 213606, "▁علشان": 95379, "▁allemand": 153313, "▁mắt": 48105, "oui": 124810, "তই": 135702, "▁মুহাম্ম": 235605, "ouli": 148748, "اني": 16033, "▁திருப்ப": 117696, "imizin": 133381, "𝚃": 248759, "▁Zahl": 62445, "▁KIT": 137007, "ótica": 155072, "▁ट्वीट": 54431, "▁بیٹے": 130311, "जम्मू": 203588, "луб": 116107, "▁Arcade": 82550, "allus": 195290, "Nike": 98808, "▁NIE": 236661, "▁chaise": 151616, "పి": 39674, "▁कोचिंग": 80826, "▁अधिवेशन": 215550, "▁\\%\\": 203554, "▁යුතු": 128670, "▁العمر": 151815, "▁rilev": 105287, "▁element": 3408, "ശ്ശ": 218719, "提": 237628, "▁continent": 30817, "▁indes": 145727, "年に": 48364, "чению": 86226, ":\"))": 171361, "▁croire": 129130, "▁bús": 55605, "রত্ব": 89477, "▁सर": 6389, "▁Gleich": 80731, "くなります": 151097, "𒐏": 250698, "itatif": 231785, "▁Brahmin": 236500, "▁olvid": 83706, "▁stroj": 198105, "▁naphthalene": 149317, "▁Data": 5774, "▁scholarships": 56576, "▁prescription": 31462, "下标": 233143, "zers": 74051, "己": 237834, "▁функции": 63598, "łącznie": 165920, "▁dataGenerator": 63954, "ereur": 193267, "টিল": 66773, "érios": 145029, "▁Een": 49806, "▁замеча": 84031, "vector": 8322, "<unused241>": 256143, "▁nech": 126536, "QAry": 114367, "▁Reformation": 108138, "▁ileti": 157045, "tedy": 102782, "苣": 251800, "<unused1293>": 257195, "థ": 238649, "▁missionary": 71684, "UO": 109640, "▁kredit": 133282, "▁পুষ": 138666, "userID": 125804, "ग्न": 47440, "irnov": 167996, "<unused4791>": 260693, "owo": 34770, "▁temple": 20376, "▁Pentium": 162809, "▁clair": 61815, "": 246942, "buttonclick": 16566, "▁চাপ": 40874, "▁acting": 13011, "▁blueprint": 79768, "ണ്ട": 9294, "]);": 6284, "▁lazy": 31770, "<0xF9>": 487, "▁benzoate": 182758, "林": 238405, "shadow": 18184, "▁состоится": 217165, "anyu": 108455, "まる": 53882, "▁प्रभावित": 40676, "▁marshal": 95908, "巴": 239055, "▁亠": 173603, "▁bmw": 146450, "▁ribonucle": 197843, "akumar": 151755, "▁சா": 25897, "snacks": 178663, "▁했습니다": 176820, "ৈতন্য": 35360, "▁evidente": 105319, "▁позволит": 135008, "▁NUMBER": 37511, "渫": 247625, "▁cosas": 27056, "▁sterk": 129774, "<unused5027>": 260929, "▁vegg": 52985, "▁fieldwork": 174333, ")%>%": 109326, "▁হতো": 99564, "▁Maternity": 190563, "ları": 13355, "▁그는": 108997, "▁معانا": 132559, "ネイ": 203056, "▁mogelijk": 58965, "minecraft": 57501, "慥": 255812, "Reg": 5024, "▁AMOUNT": 144151, "▁legy": 151090, "▁출발": 172508, "▁dalamnya": 183412, "▁элементы": 115836, "Elems": 77379, "▁whor": 202506, "▁cozinha": 120784, "▁compatriots": 224799, "err": 1193, "▁cylind": 23895, "▁exclusionary": 197573, "▁[])": 60227, "<unused4076>": 259978, "memor": 138953, "<unused4135>": 260037, "🥱": 249773, "▁Banach": 52507, "Agriculture": 114027, "▁Casual": 72087, "▁ogrod": 220684, "▁Effekt": 232678, "▁Мак": 66614, "▁equalizer": 176523, "▁personaggio": 175907, "▁acceleration": 21904, "<unused4484>": 260386, "ཊ": 246740, "▁Özel": 226137, "値下げ": 147205, "▁personalizado": 154968, "贯": 241894, "जेस्टिव": 216628, "▁Subcommittee": 107765, "レスト": 112250, "▁update": 4610, "▁Fuji": 104545, "а": 236808, "▁inclination": 68424, "▁MATTER": 231140, "▁நடைபெற்ற": 98064, "▁ചെയ്യുന്നത്": 231168, "▁স্বপ": 20438, "귋": 254425, "▁privileges": 49177, "焯": 247942, "विटी": 220540, "▁पढ़": 8778, "▁проте": 73978, "McL": 164432, "𝟘": 255839, "trl": 16967, "▁Ender": 208614, "県": 239001, "胝": 252687, "bins": 41084, "WOM": 211261, "Bike": 123566, "ява": 216544, "▁Minnie": 134786, "▁emb": 6286, "▁Wheaton": 190033, "▁longevity": 55840, "<?": 8510, "chelles": 74783, "▁کمپیو": 104869, "afir": 149014, "▁контак": 91871, "▁korist": 96541, "<unused1053>": 256955, "▁pelota": 181978, "▁осозна": 142786, "点で": 218416, "寄": 239692, "!?": 64899, "isierte": 150083, "▁отправи": 107426, "▁estés": 190210, "bona": 217587, "NESDAY": 225578, "Lawrence": 104513, "▁watercolor": 31633, "pcl": 80252, "Fc": 84534, "▁ajuns": 184119, "▁saf": 4459, "▁رقم": 37668, "▁persones": 136173, "▁রাজাকার": 123986, "▁Metode": 194223, "lauf": 63572, "▁ত্ব": 73263, "▁guar": 192815, "▁मर्दों": 201375, "▁Hangzhou": 195450, "▁tv": 15330, "relationships": 129512, "claimer": 37755, "ொருள்": 125369, "discipline": 157392, "trust": 55737, "corr": 32497, "MJX": 189536, "createTextNode": 119483, "▁fxaa": 193583, "▁Centro": 37683, "謠": 246281, "▁materiaal": 213799, "उनकी": 229079, "ât": 25787, "▁Cyborg": 233533, "▁darum": 123490, "owanego": 162908, "зде": 165076, "▁selecting": 25605, "▁erreurs": 177404, "▁oLocations": 172112, "ാര്യ": 128504, "algam": 65354, "▁converting": 35322, "▁variance": 22988, "▁σα": 230389, "▁leggi": 206269, "ennials": 57928, "inata": 185906, "▁myBuilder": 193451, "<unused5890>": 261792, "▁yıll": 69243, "▁chlorinated": 156228, "▁Mab": 94233, "▁NPM": 97253, "dann": 197908, "▁criminal": 11434, "➸": 253353, "▁hergestellt": 144240, "メーカー": 59789, "▁Literary": 72791, "▁नै": 42307, "▁людям": 103789, "ాల్లో": 69402, "▁spør": 140485, "▁coronal": 93894, "getProduct": 169797, "▁publics": 98091, "▁ഹി": 80319, "▁اكيد": 183234, "▁разработ": 126105, "▁\";\"": 93276, "Gesellschaft": 236156, "ujo": 35854, "cott": 35872, "𒄸": 250671, "meeting": 49540, "▁tors": 42486, "▁علوم": 104467, "▁adev": 165727, "णाचा": 217116, "Officers": 113582, "Interactor": 203499, "▁मिताली": 177999, "▁choral": 166060, "Cxt": 233371, "▁disulfide": 144111, "▁göst": 115761, "▁ያ": 20848, "▁Lynch": 54437, "▁Glasgow": 41232, "𒃠": 250438, "AndKeys": 111121, "▁hakkında": 80369, "扞": 253931, "回路": 118327, "▁Vors": 81442, "▁Giorgio": 111600, "▁হাজ": 70229, "cent": 1424, "間違い": 152892, "▁bunting": 229463, "厨房": 105481, "▁يجعل": 226645, "Compressed": 145393, "▁rentable": 220207, "irte": 109867, "▁Secondo": 144117, "質の": 194198, "EventType": 166295, "▁ልዩ": 140120, "▁Calcula": 215378, "▁jusqu": 19838, "▁П": 3042, "▁Chaplin": 177247, "▁كتابه": 228012, "▁används": 198656, "▁ripening": 123295, "▁अराज": 229369, "▁हिर": 126159, "▁посо": 81023, "Woods": 186402, "ᓇ": 246103, "▁fairs": 103140, "▁প্রাসাদ": 141975, "▁asking": 10980, "수에": 187375, "ไง": 218113, "▁लंबी": 59815, "配布": 158322, "▁অপে": 42932, "▁spelt": 230625, "<unused3301>": 259203, "▁reparations": 209582, "▁Trunk": 177861, "▁trombone": 125509, "▁kinderg": 66218, "ieux": 34449, "▁सुपर": 41551, "▁Basing": 224223, "▁igneous": 200943, "▁Thumbnail": 230303, "▁=====": 110317, "▁conclud": 214904, "ложение": 42628, "▁Fore": 7947, "Variety": 145595, ";\",": 71461, "▁Desember": 153275, "▁percol": 95950, "▁NAN": 229457, "▁spä": 163163, "▁গবেষণা": 99151, "▁miser": 46143, "ाइ": 3589, "▁BMC": 79649, "메이션": 225369, "Leu": 149258, "ensing": 18777, "▁codigo": 92273, "inité": 219368, "▁\"&": 52172, "快乐": 82400, "▁左": 103224, "矢": 241302, "▁produktów": 181494, "partials": 135694, "▁accountability": 40240, "▁mild": 18790, "能源": 63135, "の高い": 232129, "PES": 53367, "َح": 188266, "琼": 243605, "▁অন্যতম": 57738, "डम": 166723, "▁नकल": 233901, "▁behaving": 117321, "msk": 170419, "▁Pilot": 54832, "▁maliciously": 219853, "زاد": 158469, "גה": 137366, "▁cuyas": 213685, "▁दिसंबर": 36109, "keep": 27611, "▁शौ": 70990, "ಂತರ": 58444, "孺": 246500, "▁mediast": 220331, "▁③": 131917, "▁meno": 51097, "tir": 98218, "ရောက်": 160150, "▁FRAM": 136274, "▁dif": 1098, "▁regulación": 181449, "sembl": 18847, "Text": 2067, "occasion": 68377, "▁premise": 47708, "▁PY": 70643, "▁भविष्यवाणी": 166746, "▁Canaan": 157042, "▁Most": 7660, "▁équip": 62562, "▁Sessions": 70097, "▁stets": 141892, "▁Capacity": 61242, "▁ionic": 39864, "áže": 159317, "▁wahr": 125715, "rato": 48625, "acao": 25538, "▁Prot": 49988, "▁comprising": 25039, "▁perangkat": 96416, "▁الحلقه": 200243, "▁heavyweight": 99198, "眩": 245131, "できるように": 188485, "澜": 243839, "▁معمول": 120132, "भोग": 190543, "▁répartition": 138225, "̣": 239430, "निंग": 80240, "▁chosen": 9949, "adese": 220472, "嫐": 249187, "▁Saber": 201508, "▁LIN": 75566, "▁penis": 61440, "▁जैविक": 142102, "▁ডুব": 185050, "▁tla": 184863, "Senator": 70427, "ethe": 20787, "▁ईंधन": 216693, "్రహ": 87347, "▁pkt": 172956, "otherapie": 227584, "▁vacant": 49781, "ｹ": 246620, "élect": 108154, "始めた": 155304, "▁cleanup": 50600, "▁ഒന്ന്": 199506, "に伴": 134868, "▁Nawab": 234143, "▁অনুপ্র": 102935, "▁Instrumented": 46888, "ics": 1229, "▁sintomi": 198711, "appan": 136256, "▁установлено": 230231, "▁foaf": 156289, "নির্": 98919, "▁weaning": 169496, "fta": 95056, "ྰ": 245928, "▁QV": 190489, "▁Él": 94594, "Bald": 143175, "罩": 241527, "▁Alvin": 132679, "▁πάντα": 212243, "laat": 212102, "▁ouverte": 120656, "▁termination": 34591, "chatiti": 92338, "▁kar": 7522, "ધો": 149387, "▁posled": 88877, "▁khoan": 198465, "творю": 227451, "▁Gop": 168273, "বর্তমান": 166259, "▁rö": 75102, "ORDERS": 181291, "▁inder": 220889, "aran": 7867, "▁inspirational": 45855, "▁$\\|\\": 79053, "=''": 105351, "▁Programs": 41327, "𝐧": 245446, "▁pathologies": 141505, "elas": 29352, "▁campaigning": 102425, "▁объема": 176051, "Ｒ": 241355, "▁Sagan": 189349, "bote": 205894, "▁ז": 23730, "Kob": 223712, "▁المزيد": 189915, "adoras": 44541, "Bil": 83547, "▁Elisabeth": 100936, "▁aggiunto": 235981, "▁tash": 125576, "රි": 73382, "▁fervor": 198190, "▁kiek": 157159, "แซ": 200084, "aniem": 57695, "bpm": 84845, "▁SHF": 210914, "▁Ruling": 142227, "▁Fier": 191281, "▁గురించి": 114222, "▁значення": 96530, "<unused2368>": 258270, "▁времен": 64023, "具合": 150236, "▁कटे": 212190, "▁Blush": 148664, "▁esigenze": 158863, "▁fornecer": 192818, "வராக": 126656, "▁信息": 164039, "十七": 96360, "ын": 46604, "▁दुल्": 93976, "▁আভ্যন্তরীণ": 161361, "rends": 216367, "RFC": 142824, "▁banks": 11196, "▁दर्शाता": 133572, "ગવાન": 125221, "▁চীৎকার": 194855, "▁molécules": 204493, "lla": 11537, "鮎": 248133, "CM": 10087, "™.": 233036, "ណ៍": 90324, "Waterfall": 198916, "▁Sedangkan": 156285, "▁결과": 66448, "゚": 243888, "ಸ್": 13817, "▁ಉ": 27410, "▁fabricantes": 143196, "▁Nub": 140004, "нтэр": 178590, "ুট": 22920, "▁வடிவமை": 173765, "▁počet": 88380, "nolds": 34163, "▁pathname": 151839, "勧": 242229, "がなく": 231005, "▁thải": 177041, "▁cryptography": 168925, "=\"\\": 96508, "▁lumped": 205279, "rof": 58293, "ell": 713, "▁लैस": 189925, "Stdin": 198629, "▁pronouns": 107701, "mars": 63381, "▁ceas": 171522, "▁Coating": 169624, "ستگی": 226915, "▁någon": 106378, "쫑": 253365, "▁Electoral": 75233, "▁swiss": 128834, "▁BX": 204893, "▁рід": 200519, "▁Asheville": 136547, "混沌": 195269, "▁сохранить": 139428, "權": 240551, "▁Julio": 58643, "тті": 114609, "ாரம்": 54487, "务": 237831, "𝐞": 244597, "▁المعروف": 184353, "Pending": 61433, "▁Trinity": 45441, "▁परिणाम": 31513, "osof": 48336, "ത്തിനും": 139073, "▁Morg": 93800, "▁joys": 96923, "ức": 10329, "├": 241884, "riko": 175783, "লগ্ন": 225054, "伪": 242209, "▁कपास": 234492, "淵": 245048, "▁ارو": 150169, "Fram": 161347, "▁rapporto": 85303, "smoothing": 161163, "<unused1516>": 257418, "▁लाए": 143012, "▁Empres": 135566, "▁emoz": 137705, "Antoine": 191935, "電腦": 127525, "▁Watching": 90780, "<unused3939>": 259841, "▁Ahu": 230325, "▁propriété": 90008, "▁스프": 236377, "šky": 155700, "CED": 150520, "BITS": 110227, "𓏧": 252476, "alab": 189797, "僚": 243602, "▁Subtract": 119966, "aos": 50236, "▁inquis": 125472, "▁पार्ट": 12190, "わせて": 212421, "ณะ": 49795, "上下文": 201433, "▁конден": 183694, "▁usize": 56198, "गमन": 91023, "▁автобу": 116639, "▁sinister": 99870, "▁sini": 25102, "▁acerc": 77374, "▁concierge": 129289, "▁hut": 56113, "▁структура": 129849, "ocarcinoma": 103705, "▁ضع": 115104, "ParentElement": 233871, "▁respecto": 42393, "onc": 46088, "鿆": 253575, "镳": 250999, "მიან": 116452, "▁Mantra": 184431, "<unused2229>": 258131, "eneral": 199944, "しみ": 221357, "াইভ": 96577, "▁truyền": 52320, "▁capillary": 59770, "▁protesters": 58528, "▁adjusting": 39919, "▁Miao": 189581, "ø": 237465, "້າ": 50878, "▁multidiscipl": 234654, "▁राहत": 54499, "㸳": 255701, "<unused3139>": 259041, "쥘": 255128, "▁აქვს": 152967, "▁specialised": 79728, "▁Viktor": 104925, "▁বিরোধিতা": 189611, "Fluent": 202834, "uters": 28949, "▁class": 1012, "▁బ్రి": 108180, "ellikle": 102660, "ળા": 90874, "▁Formen": 144714, "aisse": 31669, "资": 237994, "▁UIC": 93262, "<unused4345>": 260247, "カウン": 133388, "𒋕": 255593, "▁Kementerian": 158329, "▁coles": 234326, "matt": 105251, "▁fragrant": 86322, "BEDATUM": 222420, "▁Verbesserung": 208770, "▁Initiation": 197038, "▁KeyEvent": 127464, "▁Moris": 139264, "▁microphones": 115929, "▁Signature": 60401, "▁apprehension": 113291, "Nodes": 34290, "涳": 255948, "ទី": 56915, "▁किया": 3389, "▁continuing": 15374, "▁অনুষ্ঠানে": 91785, "BRA": 82859, "曺": 253813, "▁stirs": 179007, "▁पसंद": 26501, "▁pas": 2982, "▁rougeâtre": 103339, "cloudfront": 198107, "▁hence": 11632, "vision": 13031, "steacher": 207063, "▁Rockland": 235004, "▁सलूशन": 130525, "▁Rising": 66399, "▁sweeter": 135581, "Milwaukee": 209768, "asty": 19473, "▁є": 30312, "▁Ανα": 122544, "▁breakaway": 199180, "কুল": 157801, "慌": 242445, "寝": 240969, "▁работаю": 189966, "▁Core": 17354, "雑誌": 155336, "▁नियोजन": 181019, "▁dirigeants": 219087, "▁Sole": 62795, "sar": 35304, "wak": 74868, "▁atrav": 42429, "АСС": 215177, "拼": 240798, "programmed": 224539, "▁اعزائي": 63277, "ગી": 114583, "PlatformToolset": 136664, "▁لوا": 236694, "▁antioxid": 32925, "脷": 249234, "▁Cabrio": 234256, "ബരിമല": 189022, "پيديا": 143247, "▁mue": 68601, "▁Soon": 38826, "jol": 102277, "lemm": 180979, "匹": 240218, "▁Coverage": 85406, "▁ABSORBED": 234539, "▁acompaña": 226222, "\"<": 143648, "iero": 21597, "soort": 146298, "ógica": 54193, "▁உடைய": 163508, "▁поскольку": 67870, "▁ontstaan": 219645, "<unused2050>": 257952, "⼀": 249537, "却": 238799, "▁Begin": 27441, "▁Resource": 22858, "▁drywall": 170165, "流": 237818, "invoice": 53209, "▁Dip": 48387, "మని": 128521, "twenty": 157805, "▁روست": 132952, "▁δημιουργ": 127927, "however": 97485, "ierzchn": 105946, "紀": 240238, "▁সহিংসতার": 173278, "Oc": 58808, "▁barbaric": 230301, "▁Farms": 73308, "▁нее": 83714, "ktr": 22795, "▁kosakata": 87851, "<unused5703>": 261605, "▁الحديد": 182463, "Curl": 204389, "ahnya": 114685, "ToJson": 140161, "𝘴": 246072, "fifth": 77760, "▁المللی": 228207, "▁COND": 39148, "▁Yuk": 50683, "मंत्र": 115394, "Chunk": 49832, "more": 5576, "獒": 249707, "Lou": 38090, "▁KQkq": 157706, "來": 237967, "▁versionCode": 179620, "▁qr": 125988, "fp": 21417, "க்குக": 120310, "▁الفلسطيني": 205049, "yesha": 211054, "▁greenish": 132541, "<unused3434>": 259336, "▁पराम": 104288, "階段": 118605, "သွား": 90991, "▁தெரிய": 54260, "(...)": 120956, "微微": 114423, "యత్": 117044, "<unused441>": 256343, "▁Imper": 26102, "cellent": 49719, "▁pratiquer": 205808, "中で": 86419, "▁jedem": 76144, "▁Emilia": 112467, "▁hints": 45085, "▁khăn": 106783, "▁utilizzando": 164593, "ample": 1622, "▁dioxane": 218180, "▁HAR": 57594, "▁Pedagog": 180824, "ლებ": 65909, "▁스마트": 142126, "▁CAPACITY": 217439, "▁dir": 6557, "▁केमिक": 97018, "ấc": 155110, "▁exiting": 73166, "▁பிடித்த": 183851, "▁decrease": 11086, "▁Gunn": 70317, "ރު": 87756, "▁anonymous": 36599, "▁Brewster": 161040, "▁questionable": 58883, "given": 45163, "▁dwelt": 188173, "▁TextField": 81089, "▁уя": 222853, "▁PRIOR": 235923, "幻": 240474, "▁clot": 78378, "ơi": 17742, "בוד": 102312, "▁প্রথমবারের": 195366, "agiri": 217369, "ஸ": 237721, "▁zebra": 78328, "Disciplina": 207413, "▁Interfaith": 160282, "♡": 240151, "この記事": 185285, "▁adresse": 85691, "▁upbeat": 111837, "▁Poa": 191191, "ancher": 189539, "라이언트": 223672, "ThreadGroup": 114284, "▁amplit": 16307, "żs": 59167, "춤": 243172, "▁prést": 146589, "▁Roblox": 122451, "▁rib": 12481, "<unused5140>": 261042, "ṇa": 99394, "オル": 99043, "нді": 205950, "▁ब्र": 17196, "▁undeveloped": 168311, "▁simile": 129685, "電話": 51630, "▁Shelton": 107926, "#/": 149274, "رفع": 188990, "Quin": 169837, "▁Hodgson": 171588, "newMark": 160842, "▁Canva": 157634, "▁السوق": 208616, "▁سٹی": 201015, "▁una": 1985, "＠": 243400, "럽": 241121, "▁स्टैट": 230855, "▁waveguide": 113286, "▁infinit": 48989, "<unused4731>": 260633, "搬": 240996, "▁fosters": 139930, "どもの": 200207, "▁دسترس": 210822, "वाड़ा": 232610, "іб": 98234, "Kal": 51216, "パーツ": 93848, "tes": 3765, "品质": 94939, "ARI": 27366, "▁तेंदुलकर": 122183, "▁Cllr": 152414, "वाना": 65075, "▁একখানি": 169271, "▁consequências": 228673, "▁раздела": 201572, "websocket": 101951, "▁perme": 29419, "▁konfigur": 129521, "icado": 169077, "▁pesca": 130438, "▁économiques": 127734, "ఢ": 243130, "▁irregularly": 159711, "▁Ob": 4392, "▁সমাধানের": 116941, "meida": 93479, "▁რამდ": 198372, "▁lengths": 25565, "▁presiden": 205109, "lements": 10627, "を進": 135795, "IMENTO": 213623, "minIndex": 190474, "▁magn": 7472, "▁швид": 126392, "glEnd": 222879, "waterslide": 93717, "ungkan": 83343, "PSC": 66324, "্জ": 9234, "🐜": 250144, "epage": 234292, "Thankfully": 144200, "غي": 97777, "▁वंश": 134356, "▁prépar": 58224, "▁ભારત": 172520, "▁مک": 48242, "referrer": 84758, "ządz": 141345, "診断": 124711, "Comfort": 90829, "▁diabetics": 137823, "▁कस्टम": 181257, "▁Eesti": 148369, "▁வாழை": 141150, "▁pictures": 7829, "▁Sebast": 184342, "Wrapped": 222190, "НЫ": 126266, "▁गिन": 127641, "▁ripping": 126948, "▁Bar": 4244, "วิ่ง": 233458, "mming": 200252, "大量的": 109307, "<unused3645>": 259547, "ົນ": 101103, "كس": 14516, "crest": 76764, "的には": 93631, "▁scat": 141891, "▁термин": 235188, "<unused3996>": 259898, "Russ": 72186, "▁grown": 12530, "▁ervan": 215644, "▁notoriously": 109839, "▁грома": 60942, "▁ಕೈ": 127328, "𒉁": 253029, "▁liqueur": 121926, "гээ": 164700, "▁smartly": 194639, "ಾಗ": 8590, "|_": 80268, "▁pager": 216083, "▁দৃষ্ট": 104510, "스포츠": 214185, "▁homepage": 49674, "maschine": 179017, "▁Chor": 91154, "主催": 199802, "▁Runde": 145295, "jie": 108345, "▁количе": 29937, "Former": 43897, "▁quadro": 89263, "辗": 246902, "тове": 234301, "▁prescribed": 22603, "thar": 82071, "વું": 52013, "▁dormitory": 150505, "зываем": 234574, "▁siku": 165605, "MINE": 207420, "▁अध्याय": 87543, "▁disfr": 37181, "▁Punk": 57794, "▁drug": 5290, "▁গিয়": 211832, "▁پیشہ": 185400, "▁reiterated": 77177, "▁aristocracy": 160274, "▁مسیر": 165613, "▁glycoproteins": 218903, "刑": 240932, "crack": 91888, "▁相": 116814, "含ま": 76209, "▁कला": 34262, "units": 25441, "▁পড়বে": 133418, "propag": 210718, "<unused281>": 256183, "参见": 199044, "ḿ": 252556, "Witt": 138379, "▁guarantee": 15246, "▁NP": 40098, "mateurs": 175543, "▁pel": 6292, "不思議": 189557, "ym": 1177, "▁prachtige": 178981, "垐": 248673, "▁mejora": 90588, "ulka": 232185, "▁бер": 80048, "▁запу": 167906, "ções": 7696, "сі": 13813, "▁loft": 57341, "递": 240285, "▁Bt": 152772, "▁patented": 61726, "▁brake": 28415, "択": 240370, "▁রশ্ম": 231483, "▁subsets": 39365, "striped": 109121, "▁সি": 11364, "▁Recognition": 77021, "Locked": 108189, "ทยา": 144832, "▁Interment": 182269, "▁▁▁▁▁▁▁▁": 144, "ymmetry": 31135, "▁원": 22299, "пе": 4759, "<unused4672>": 260574, "verz": 229112, "cop": 22752, "irsi": 181588, "tissue": 178684, "別に": 145893, "▁Hem": 26065, "<unused5708>": 261610, "▁тър": 175081, "▁تم": 13232, "<unused4174>": 260076, "▁Phnom": 179980, ";%(": 188885, "<unused1287>": 257189, "からも": 97585, "▁mantener": 44427, "ме": 2648, "ಾರು": 78129, "▁حوال": 60268, "▁wal": 12460, "-])": 65181, "▁locally": 16445, "fatt": 96375, "🌕": 249125, "ulloch": 201009, "inação": 59754, "▁conserver": 141753, "▁thys": 208224, "েষে": 167439, "▁sert": 63253, "හා": 52087, "▁crusade": 152858, "▁cheese": 13840, "▁Nitro": 122398, "▁plowed": 232882, "▁tarixində": 193042, "▁русских": 218010, "▁osc": 12970, "dari": 176539, "▁سوش": 180403, "▁బ్రిటిష్": 201090, "LORD": 190773, "茬": 245812, "娅": 244624, "▁astrolog": 130817, "▁पर्वत": 115310, "xxxx": 56936, "Decrement": 209037, "▁प्रवाह": 145668, "▁astrocyte": 176004, "ইন্দ": 126785, "यरी": 157907, "▁puerto": 93292, "ಸ್ತ": 107036, "▁yielding": 51459, "गिल": 232104, "PEND": 33915, "▁لمح": 235026, "▁biy": 230205, "смо": 20385, "বিভিন্ন": 219591, "▁Sculpt": 165973, "}})": 71206, "▁සං": 94126, "▁venues": 37643, "▁மருந்த": 187830, "▁exist": 2849, "ät": 7331, "▁saws": 155098, "mundo": 223428, "耱": 249117, "▁বিষ্ণ": 156655, "▁/^": 151705, "▁terrified": 80003, "▁ASTM": 83243, "▁ट्रॉ": 84812, "Opel": 187668, "▁आंसू": 190443, "inig": 52599, "▁renovating": 177009, "abas": 63564, "rait": 7333, "▁তাজ": 149839, "渚": 246908, "conditional": 139270, "▁То": 17855, "▁Haitian": 159319, "▁Rating": 47240, "上昇": 148481, "▁پزش": 122699, "Earn": 134526, "ERICAN": 44600, "ParamList": 221738, "erry": 13180, "Hern": 158534, "泹": 253773, "▁Nora": 107545, "▁Regulatory": 50246, "ð": 238514, "மதி": 158363, "▁Richmond": 37435, "▁höher": 96477, "IIT": 202465, "▁Pullman": 208747, "🙂": 240731, "▁Acoustics": 229102, "▁Sheldon": 111559, "▁Kle": 20685, "▁Marquez": 126938, "ROIT": 218803, "▁アル": 76406, "▁byrow": 219933, "LPTMR": 124398, "▁Kev": 123114, "▁tenetur": 171775, "▁बल्ले": 53160, "Robot": 61579, "▁mang": 14695, "▁te": 926, "▁judges": 25267, "那麼": 60661, "alphas": 160139, "▁Kazim": 219755, "▁lógico": 170891, "ચ્છ": 67054, "दुर": 85356, "ন্য": 3634, "▁smirk": 145890, "▁Passengers": 173873, "▁없고": 196371, "Reuters": 70825, "uée": 229439, "minster": 43617, "▁които": 66288, "▁皆": 82114, "社会": 22471, "াস্ত": 28796, "餃": 244057, "🐭": 250276, "abee": 188978, "▁protests": 34470, "yo": 9671, "Verizon": 197088, "anil": 106041, "broccoli": 84651, "<unused6126>": 262028, "▁дочери": 232300, "▁解説": 154523, "NullException": 114251, "DTMakeRectInCM": 177351, "▁Hoff": 38795, "▁eccentric": 65318, "▁выстав": 98937, "зывают": 123091, "▁consultas": 144005, "नेहा": 197895, "เส": 25626, "აცი": 58502, "▁Versus": 150547, "ޔ": 242528, "🍃": 243937, "▁dirty": 24881, "য়েল": 111633, "రె": 101065, "▁fabricación": 119017, "outez": 158016, "▁lames": 207140, ")*((": 233973, "㎿": 255426, "▁lift": 12693, "▁rises": 33358, "Maar": 212956, "็ม": 77341, "xtime": 227594, "ٻ": 244038, "Consequently": 107673, "<unused1558>": 257460, "▁Scan": 52621, "▁appointing": 110417, "▁думаю": 87106, "▁ASPECT": 140790, "▁kdy": 51923, "▁গুন": 164547, "▁podríamos": 179946, "wenden": 179085, "▁clickView": 46223, "▁brane": 229446, "▁enterr": 171546, "▁Schneider": 61243, "▁angl": 230255, ")').": 181082, "▁cosines": 207126, "▁primers": 66468, "▁discontinuities": 144839, "欱": 254816, "▁major": 3262, "▁creeks": 155107, "▁auxqu": 110882, "<unused5227>": 261129, "▁PRODUCTION": 112583, "▁материалы": 117006, "注入": 88419, "sports": 70733, "▁قاسمی": 230943, "▁grabando": 201130, "aturi": 193162, "多年": 68300, "▁évaluations": 127049, "𒁀": 250392, "kN": 191594, "▁cysts": 129320, "TRR": 212529, "▁mer": 3286, "▁Esquire": 231358, "▁নির্মান": 133730, "▁jár": 154842, "▁आईपीएल": 112648, "の情報": 200114, "口感": 151670, "。。": 39754, "▁Brookfield": 213021, "▁autoWatch": 194879, "재": 238585, "Hudson": 153716, "الب": 23102, "Sw": 8824, "▁resonated": 166152, "▁بنت": 133542, "ственности": 206425, "▁সন": 96710, "▁வெளியிட்டு": 186270, "▁scientifique": 122047, "▁szín": 116427, "묭": 255434, "▁Conting": 195076, "▁hilltop": 228361, "安卓": 194596, "▁handsome": 30058, "مع": 17428, "▁ويا": 157451, "편": 239404, "▁Ek": 29610, "வு": 8654, "wezig": 122263, "▁অনুযায়ী": 78410, "▁போது": 47350, "TableName": 148763, "▁helping": 9795, "▁getActivity": 222110, "世界的": 138516, "▁Carver": 169592, "▁GLC": 128030, "ナップ": 152825, "$^{-": 108967, "▁スウェット": 179952, "ोटे": 77015, "▁selfie": 54709, "唄": 245575, "}`);": 27280, "।'": 95150, "vollen": 210757, "▁nonlocal": 130614, "beh": 97344, "▁indefinitely": 68535, "🦋": 244334, "▁Gaud": 123856, "▁poked": 164113, "▁celý": 204732, "<unused4894>": 260796, "▁spices": 35226, "ৈত": 25495, "▁பல்கலை": 111160, "Brightness": 174180, "▁Collins": 32393, "雌": 243842, "▁Bake": 85888, "acus": 76215, "🗝": 252239, "jí": 115659, "蕞": 253718, "ettiin": 120072, "öff": 33488, "▁goals": 7675, "Références": 195127, "godic": 193658, "▁:=": 4558, "<unused2317>": 258219, "▁Purnama": 194896, "▁castings": 127016, "▁Kiran": 188475, "▁rebound": 65810, "▁никто": 97936, "▁vér": 50162, "▁Pot": 12410, "▁best": 1791, "▁prematurely": 122200, "lyn": 17313, "agam": 51598, "▁angiogenic": 216201, "casts": 128885, "▁SSB": 232739, "▁elapsedTime": 187417, "DOI": 75596, "stdc": 48352, "Nuestro": 227080, "を図": 139446, "▁descoberta": 215834, "ठान": 126212, "▁maravilh": 172180, "SHIFT": 108830, "のご": 72097, "▁konusunda": 106488, "9": 236819, "▁{*}": 209315, "ocket": 4705, "▁Businesses": 93697, "▁metabolismo": 160871, "▁sunflowers": 116487, "▁createTask": 206516, "▁Dy": 41365, "gher": 115627, "▁intang": 88696, "▁VT": 55503, "▁맞춰": 172414, "▁व्याप": 26906, "ಕೆಯ": 234414, "▁believer": 77196, "▁elk": 63986, "కుడు": 132394, "因": 237646, "망": 240288, "较低": 165652, "▁acquaintance": 79060, "ً": 238007, "▁estates": 55222, "intégr": 106205, "htim": 229036, "▁Grizz": 116491, "▁हथ": 76375, "ڈن": 231223, "▁Winston": 63154, "比如說": 153477, "▁wore": 30748, "Delhi": 89726, "▁realiz": 14981, "Arduino": 141151, "<unused908>": 256810, "́ng": 188314, "▁Marissa": 190808, "énergie": 58480, "▁mjest": 220683, "▁ी": 115419, "▁Alderman": 224843, "▁രാജ": 69914, "▁Blatt": 189596, "generational": 144964, "經驗": 128191, "Capabilities": 130640, "[![": 109206, "▁ladr": 159548, "▁पाती": 152216, "सँग": 175248, "getFocus": 64074, "▁Airways": 60998, "ச்சர்": 71268, "keyframes": 79806, "sant": 184470, "▁Eri": 71711, "ňuje": 100454, "▁Charging": 110283, "carb": 82953, "Subtract": 122480, "▁moz": 118018, "рифт": 82424, "▁Chaos": 63723, "WeakTable": 118301, "▁சொன்ன": 82335, "Ша": 99638, "▁exhale": 163158, "▁vue": 34482, "▁önemli": 69087, "▁mamy": 129420, "▁seedling": 100460, "▁Score": 27242, "▁Notation": 196506, "▁UIStoryboard": 182717, "▁ofere": 47019, "▁Passes": 193780, "▁trends": 15067, "▁પ્રિય": 206931, "▁thrown": 20710, "amending": 151965, "▁සො": 218364, "▁hicimos": 136505, "ussians": 204756, "▁LSM": 181849, "▁inext": 150661, "Urs": 158665, "▁entr": 9428, "Bibliography": 151120, "の使い方": 185458, "☮": 249043, "remo": 49881, "ILA": 89211, "စ": 238110, "▁Bahan": 215812, "▁bú": 139540, "▁Amber": 59268, "ฏ": 241457, "prod": 15981, "UIImage": 90634, "..!": 71705, "NotIn": 217502, "▁projecting": 70723, "করে": 117659, "▁ep": 4227, "webBrowser": 192458, "هُ": 72172, "▁semifinal": 91581, "figmagic": 214074, "▁jointly": 40988, "更高": 121061, "陨": 244373, "uhnya": 103883, "𒁋": 252892, "▁উড়ে": 209586, "ərə": 144232, "▁slew": 96895, "▁লেখার": 132927, "▁strument": 73628, "▁अटे": 203024, "arks": 8429, "बत": 31036, "▁Przy": 106704, "▁Ganges": 212041, "▁کول": 63354, "▁fringilla": 182559, "ুদ্ধ": 9287, "ldap": 165222, "▁바": 19342, "▁slipper": 166996, "▁Komponenten": 189286, "▁स्विच": 147503, "्यून": 43211, "charges": 88977, "▁Brooke": 83459, "▁निर्णायक": 227719, "▁ncols": 126112, "ുമുള്ള": 183979, "▁трех": 85664, "▁posteriori": 204539, "▁extrême": 201356, "▁للف": 114328, "▁niên": 121100, "gi": 4995, "▁Ral": 148551, "純正": 95201, "เรือ": 137448, "mio": 140046, "াবেন": 40218, "▁conservatives": 101938, "oplastic": 62414, "થમ": 100952, "Kost": 222100, "ků": 95564, "________": 6454, "▁Anybody": 159700, "▁DMG": 189133, "你在": 99397, "▁🔥": 128728, "运气": 232587, "▁sustainability": 24488, "<unused6148>": 262050, "|.": 167476, "দ্রোহ": 51312, "▁submanifold": 156945, "▁prezzo": 94553, "🩸": 253143, "rhs": 93060, "▁weakest": 101936, "▁tanned": 167038, "▁уч": 46264, "kert": 207148, "▁MAIL": 203799, "▁pintar": 148311, "▁mill": 2612, "戽": 255160, "▁guan": 176445, "ebay": 180245, "▁cambiamento": 201295, "onet": 90002, "Configure": 45744, "▁subst": 5413, "آپ": 126030, "ujjati": 178688, "ﾑ": 246183, "▁एजेंस": 154421, "▁dailySales": 233602, "▁店": 91570, "▁życie": 136461, "カルシ": 223715, "▁llaman": 180947, "䍘": 248962, "▁TAL": 108764, "었어요": 205111, "ringa": 183860, "upas": 120648, "ໍ່": 64271, "스테": 191677, "Clusters": 146480, "▁részt": 225354, "▁Jam": 17845, "JVM": 193219, "<unused5112>": 261014, "▁न्यूज़": 177703, "▁States": 4184, "▁प्रकृति": 60797, "CommonAncestor": 229579, "ButtonPressed": 207233, "▁Hickman": 209326, "Show": 11340, "▁tham": 42775, "▁vencer": 134114, "IoT": 89024, "▁neum": 107389, "▁menswear": 195869, "▁limitada": 155714, "▁तोड़": 197600, "শুক্রবার": 176977, "▁zvý": 150127, "▁induk": 196902, "▁আক্রান্ত": 52494, "▁Commodity": 121349, "▁apprehensive": 168366, "atiya": 190318, "▁електри": 157142, "Campo": 209337, "▁NBA": 27922, "ilin": 64416, "团": 238850, "लिब्र": 99959, "angga": 125569, "言う": 94049, "第一个": 62779, "▁Peruvian": 111101, "▁Ez": 44252, "寞": 243872, "▁intestin": 227929, "▁journal": 8884, "nienie": 119748, "Reply": 40654, "श्मीर": 58667, "шёл": 114135, "▁行政": 216137, "▁যাওয়া": 50909, "ંકી": 189685, "▁भाभी": 222043, "▁unitarity": 197448, "▁provoz": 143433, "𒉼": 250575, "ശ്": 39640, "▁रहेंगे": 64901, "レクトリ": 206062, "▁solv": 30004, "▁ước": 127933, "PLEX": 167847, "▁$[": 13717, "▁comis": 209851, "螟": 248420, "Xbox": 137005, "▁exponer": 164416, "▁เป้า": 151692, "度的": 67230, "▁keh": 60036, "▁Polymer": 76817, "▁nouns": 77093, "ாலிக": 204059, "VENTION": 89471, "癤": 249071, "▁méth": 40014, "▁克": 222938, "▁రంగ": 219948, "ENVIRONMENT": 159608, "<unused3200>": 259102, "ބ": 241280, "ows": 15940, "degree": 28042, "限り": 95837, "▁utilisez": 139515, "バイト": 178960, "▁мм": 46402, "जूदा": 89861, "騙": 243608, "": 255011, "arza": 169025, "▁Grill": 54189, "▁تأس": 202647, "ANNEL": 82578, "نامه": 118608, "currentToken": 92380, "▁Mustard": 195199, "ົ": 238913, "▁transcends": 161775, "▁بدور": 192197, "▁المرس": 148117, "▁своими": 89682, "quisitions": 164425, "▁Inferno": 214885, "هه": 70433, "mtr": 27141, "=\"$": 16948, "▁muchachos": 147568, "플레이": 155359, "▁compete": 20811, "▁Ensuring": 146671, "▁versatility": 58367, "Máy": 233039, "▁Ammo": 176911, "ਟਰ": 143186, "管理的": 203845, "▁evident": 15179, "▁টিকিট": 153283, "▁Motiv": 180812, "▁tweed": 196483, "ീഷ": 185258, "erian": 91466, "▁Imputted": 143217, "▁країн": 229869, "▁среднем": 170066, "▁解析": 178667, "▁Scaffold": 61811, "算的": 232370, "𒆾": 252985, "())->": 178353, "▁खुशख": 134582, "▁మరియు": 57041, "エアコン": 196836, "illeurs": 70175, "College": 66624, "▁świe": 93056, "Ter": 37701, "▁Cas": 10324, "▁McGill": 101909, "étation": 142266, "▁heels": 37308, "▁लॉस": 138551, "▁तास": 223545, "Ду": 138306, "▁вый": 214984, "ğan": 77853, "▁क्वांटिटी": 231061, "▁kimchi": 195417, "▁Yangtze": 154281, "▁tappa": 234702, "▁enrolled": 35430, "Presented": 139825, "が高": 109848, "▁monastery": 72765, "形成的": 230520, "▁affid": 34590, "▁amo": 81451, "▁نا": 32387, "▁passando": 144215, "▁Lassen": 219652, "сий": 112395, "▁Penis": 184680, "#$%": 190494, "▁vapour": 67486, "g": 236759, "perDif": 219861, "ാന": 15160, "<unused509>": 256411, "جم": 13985, "ชร์": 180075, "▁producers": 22220, "sız": 203968, "鲑": 250800, "▁قوات": 214872, "▁Sonos": 212535, "etem": 137157, "蓿": 253301, "Nb": 56985, "uname": 102326, "slidesPerGroup": 188066, "тии": 46698, "▁compagnia": 206127, "▁hym": 47084, "▁навер": 89050, "Lug": 184694, "▁weekday": 97119, "▁ermöglichen": 119069, "男生": 140859, "más": 121001, "▁phys": 3327, "<unused3098>": 259000, "▁объ": 16557, "wass": 229813, "▁DMR": 236191, "▁trif": 51363, "▁Enhance": 122779, "UNION": 147612, "烘": 243114, "▁onshore": 154497, "▁følgende": 231562, "▁liable": 26076, "升级": 55916, "▁zur": 10497, "▁ocurr": 139998, "▁عنا": 236429, "▁Giá": 116291, "银行": 52251, "▁kull": 90468, "▁прин": 127551, "▁stuff": 7305, "핫": 244147, "▁Secondly": 55023, "▁weights": 18710, "石": 238441, "▁siêu": 103172, "कारात्मक": 53424, "▁estableció": 214741, "ology": 1865, "▁뛰": 120219, "▁doğal": 151440, "▁OPERATIONS": 232422, "特別": 43989, "চরিত": 122760, "▁♦": 188783, "▁فهي": 162540, "▁DEVICES": 165133, "wedd": 213151, "ारक": 83968, "蕲": 252779, "▁लीप": 193652, "𒈥": 250551, "▁үй": 170680, "クリア": 106529, "trash": 56693, "▁निश्चित": 52344, "▁ayak": 167563, "yu": 27055, "arz": 65555, "▁উল্লেখিত": 152704, "Aim": 127337, "▁FGFR": 213156, "▁answered": 19398, "нак": 87060, "<unused3689>": 259591, "▁Puget": 164372, "Jason": 77519, "▁direc": 217992, "▁krijg": 182774, "ໂຕ": 202731, "avno": 81812, "apha": 209333, "▁नेतृत्व": 47916, "<unused1987>": 257889, "▁ګ": 50167, "ტურ": 166728, "▁putih": 82853, "හෙ": 236373, "▁deposit": 14664, "▁secara": 23997, "武汉": 126599, "▁diseñado": 112553, "▁ब्यू": 83283, "<unused6111>": 262013, "▁جاي": 177692, "▁locksmith": 184579, "UCS": 203265, "▁starost": 228486, "poj": 194504, "▁hadc": 162123, "▁صالح": 99768, "▁Citizen": 67386, "▁Semaphore": 206324, "▁väč": 206741, "▁dürfte": 182045, "átil": 78872, "▁lagged": 174002, "ന്തി": 108746, "ЕС": 100929, "▁Nota": 117886, "▁amené": 215693, "SPR": 113512, "▁देशी": 165812, "adjust": 35277, "<th>": 174, "dauer": 155250, "ResourcesErrors": 183699, "<unused4031>": 259933, "anting": 107745, "▁consecrated": 149415, "कता": 77551, "▁ē": 185640, "ೃತ": 132027, "▁certific": 23009, "▁кур": 57251, "▁Mulder": 208585, "▁जुटे": 234140, "▁эсеп": 204943, "palindrome": 227147, "₪": 244607, "▁இறுதி": 191052, "勤務": 92963, "▁creepy": 73979, "Haupt": 233325, "▁loài": 106769, "▁bumble": 188612, "▁কার্যকর": 84207, "▁décor": 49805, "▁dolor": 22604, "שׁ": 211201, "hest": 6165, "▁Online": 13118, "テック": 188180, "▁allowed": 6208, "▁પ્રમાણે": 231976, "LARGE": 224025, "▁Strept": 101169, "靂": 249650, "Gamepad": 221278, "▁Slug": 211504, "▁ет": 186816, "ITO": 78003, "▁ute": 121470, "▁зву": 53410, "▁поговори": 105322, "▁सशक्त": 146137, "▁além": 49865, "▁Thir": 177262, ";-": 66622, "▁सीड्स": 171655, "HTML": 8185, "',[": 205439, "▁Dau": 109520, "▁Texans": 113265, "▁shortlist": 204140, "▁анализ": 102616, "▁स्टोरेज": 127025, "茯": 249692, "▁nouvel": 105516, "▁نه": 37763, "orski": 131889, "𒀵": 250391, "Spectrum": 145534, "变成": 78216, "ure": 694, "▁xia": 184391, "िक्सल": 172656, "וח": 61624, "▁réaliser": 85430, "ለም": 72965, "adic": 31942, "▁കരു": 106172, "оні": 162753, "જે": 53796, "▁gour": 47292, "▁ゴルフ": 151233, "CI": 9575, "новый": 231948, "rauch": 128859, "▁серд": 105431, "▁py": 6167, "▁emphas": 10347, "▁orgánica": 217740, "▁MIM": 174681, "ivables": 134388, "innitus": 162583, "केवल": 216874, "繪": 243194, "qualiter": 217723, "▁Multin": 213494, "▁پرت": 158069, "▁உலக": 30993, "▁chặn": 222648, "▁мероприятий": 151283, "▁नीला": 203188, "▁sts": 223200, "etil": 168447, "ریق": 36748, "trip": 59667, "▁interesa": 128983, "▁allemande": 214079, "▁Monteiro": 205756, "▁synthesis": 18844, "▁Expo": 57034, "強化": 91228, "▁영화": 77239, "SystemCall": 198363, "▁insides": 232333, "▁Bick": 154692, "▁tách": 213852, "▁있던": 183961, "▁consultation": 22388, "reti": 175429, "▁filet": 145290, "▁سه": 43865, "▁वापर": 52938, "▁rigorous": 44928, "кали": 192796, "ETER": 39415, "試合": 77014, "▁Robotic": 177739, "▁membres": 51718, "ולוג": 196677, "▁možnost": 169829, "▁KI": 76148, "▣": 248011, "转移": 103000, "▁resuelve": 199575, "▁配": 106536, "▁Requirement": 127740, "▁balas": 229354, "澧": 251117, "▁deployment": 29436, "PERSON": 107354, "ikal": 30262, "<unused4265>": 260167, "▁Obtained": 222691, "<unused2084>": 257986, "▁ähn": 81665, "ված": 86754, "▁Saal": 182204, "become": 138384, "kw": 15485, "▁সুতরাং": 60561, "▁ăn": 36505, "▁taill": 206722, "▁niektor": 235232, "▁.,": 3693, "ǒu": 136560, "رفة": 87623, "ங்க்": 223813, "▁expert": 7710, "gon": 20362, "▁Jeśli": 103539, "▁jugu": 112751, "▁Rabat": 207186, "▁ilç": 120171, "anything": 112318, "▁kios": 85479, "▁jord": 117261, "▁Вар": 142565, "▁ረ": 197215, "▁prédio": 156321, "▁Assn": 170502, "abang": 166637, "▁:/": 180564, "હ": 237538, "ferd": 174259, "▁grades": 26487, "▁mercantil": 195079, "βάλ": 162444, "🤧": 248621, "▁kait": 171507, "<unused2560>": 258462, "▁স্কুল": 60490, "бе": 7177, "▁limitation": 26919, "▁kompon": 221636, "<unused4509>": 260411, "aterdag": 210326, "ボル": 198367, "▁mainstream": 31653, "نې": 127937, "▁mapped": 44275, "▁Turnbull": 140274, "▁gallbladder": 165027, "▁downg": 87670, "▁Manit": 70293, "▁Михаил": 116402, "▁homosexual": 83537, "istan": 9010, "Boe": 170147, "▁Verwaltungs": 210288, "▁conservatively": 234357, "dicke": 159199, "▁pelaku": 131637, "▁squamous": 111294, "+](": 63459, "bla": 56841, "urnya": 180584, "▁car": 1295, "▁núcleos": 235034, "▁ofthe": 181780, "getAs": 93039, "▁scopo": 114518, "▁Audible": 153404, "▁reckons": 207174, "Angelo": 112565, "▁Series": 12142, "pick": 20701, "▁Visual": 24246, "▁dédi": 94436, "▁album": 8412, "▁plaza": 63883, "▁pageant": 128829, "▁Armor": 100435, "ayev": 157023, "▁ACTIONS": 229357, "نت": 14799, "▁الأعمال": 191004, "Identity": 33434, "睞": 248434, "▁parthen": 135567, "▁माइक": 119924, "▁Yur": 131616, "▁flatter": 111771, "cee": 137720, "ಧಾರವಾಡ": 164674, "{//": 125827, "엽": 243894, "カイブ": 164219, "▁lasciato": 215596, "▁egyszer": 120532, "ەك": 128938, "▁sciences": 25995, "▁consequence": 17847, "▁Hermann": 91159, "Shiv": 201542, "▁Tudo": 97662, "cations": 164650, "টেন": 92133, "geist": 166082, "ຸ": 240226, "ிறது": 12086, "စ္စည်း": 217434, "▁gespielt": 167885, "<(),": 198504, "▁Bailey": 41469, "▁partic": 1760, "dose": 46648, "▁sorte": 43847, "eney": 213198, "Subtitle": 71302, "▁leveraged": 99448, "ิทธิ": 77421, "▁AudioClip": 194047, "▁scott": 113497, "Tm": 140601, "laš": 192600, "▁ইউনিক": 173748, "▁کامل": 118704, "വീ": 124237, "<unused6228>": 262130, "Wright": 99869, "stellung": 35131, "▁": 232307, "▁Atra": 214947, "▁உடல்": 71720, "▁درسنا": 91600, "▁Naut": 133667, "naires": 57989, "▁trough": 56633, "<unused150>": 256052, "▁ইরান": 174013, "habi": 60281, "▁মৃত্যুর": 66876, "▁entro": 98216, "▁අන": 120597, "▁सम्मेलन": 85443, "ḷ": 250822, "赔": 242497, "▁conseille": 194488, "ಂಭ": 87857, "▁Tohoku": 234442, "▁Proportion": 193705, "▁counterparts": 41788, "ᄂ": 245828, "<unused1658>": 257560, "▁maze": 59600, "useppe": 75660, "▁Stacy": 137730, "鏁": 255835, "茟": 254008, "ulado": 163676, "<0x2D>": 283, "ുകയാണ്": 111829, "夷": 243245, "▁expenditures": 41750, "▁சேர்த்த": 213286, "▁Oud": 206649, "▁addUser": 130151, "terminate": 159339, "▁pluie": 175877, "▁आइडेंट": 199305, "Cabin": 206835, "▁сред": 20206, "сль": 185581, "olle": 44854, "専門店": 180461, "Gaming": 138312, "▁blessings": 56274, "颁": 242926, "ASSI": 93117, "៍": 240855, "ServiceGroupID": 64288, "▁needful": 208418, "▁colder": 81934, "त्म": 13026, "uidas": 81516, "ánto": 72696, "▁adulti": 216835, "▁Emil": 77001, "▁காரணமாக": 63013, "▁હાલ": 187742, "▁certificados": 211637, "Azer": 206160, "裴": 243790, "▁मैथ": 22832, "<unused5274>": 261176, "▁மருத்துவ": 82905, "ohama": 138285, "▁Geg": 60235, "检验": 134169, "ിലെ": 38938, "▁mudd": 229421, "ሥ": 241409, "▁идеи": 145025, "Choisissez": 198686, "ولوژی": 231031, "fotos": 165873, "▁;\\": 227221, "▁raíz": 101620, "▁визуа": 154080, "ありがとうございます": 86108, "▁Alguns": 175664, "厅": 240271, "▁Amherst": 141858, "ิม": 48772, "▁Ż": 94119, "▁escalas": 234934, "▁EMI": 97632, "菏": 248981, "▁হলো": 27799, "▁çerçe": 205006, "▁Prong": 200487, "▁accounting": 18437, "▁theoretical": 16813, "▁Erdoğan": 172910, "▁dzie": 35644, "▁quantile": 142758, "▁حاجه": 45066, "bigoplus": 78691, "▁टे": 13754, "▁Cl": 1958, "▁Nawaz": 192271, "discard": 188818, "▁অচিৎ": 115584, "applied": 103411, "▁psycopg": 209907, "Fon": 120808, "▁fest": 8060, "▁давления": 157223, "▁новой": 98527, "▁elimin": 20498, "▁widening": 87564, "roso": 125492, "▁Affleck": 140620, "Paras": 214944, "renders": 118334, "▁रुके": 157189, "卑": 243109, "▁Rollins": 126150, "Исход": 221437, "▁സ്ഥി": 161285, "▁règle": 107145, "guns": 98034, "▁slash": 70922, "<unused1996>": 257898, "▁elektr": 32882, "▁каль": 162102, "opssynth": 85000, "▁gwar": 167015, "be": 1553, "▁актива": 205856, "▁অ্যাড": 116682, "▁onset": 30252, "initial": 15691, "祟": 245859, "ciplinary": 35180, "▁Stir": 75749, "▁músicos": 200286, "▁హత్య": 215350, "▁confesses": 190761, "▁asesor": 108625, "▁dieren": 227795, "✓": 240721, "▁Spectral": 121315, "▁Ll": 78733, "бов": 36362, "▁evaluate": 13901, "▁aliexpress": 162250, "riors": 32217, "▁オ": 29841, "Seconds": 28053, "▁dih": 182594, "<unused4665>": 260567, "▁acostumbr": 177213, "ព្យ": 205145, "▁computer": 5194, "▁liz": 123546, "ENDOR": 101202, "лум": 152125, "▁figsize": 93137, "▁Alkaline": 230630, "বাহিনী": 142733, "▁example": 2591, "▁étudier": 181737, "▁situado": 120066, "rapers": 74353, "erent": 171654, "▁осна": 115280, "▁comprendere": 209988, "รีย": 18563, "▁सिलेंडर": 96757, "mimpi": 202484, "▁choisi": 104173, "pios": 82152, "liqu": 22775, "exports": 12823, "▁Beton": 217619, "▁빠": 76999, "ড়ান্ত": 168870, "▁Enzyme": 144638, "▁Paige": 122535, "styles": 8635, "▁coach": 8505, "▁duet": 135962, "▁स": 701, "isjon": 229719, "▁जंगली": 189460, "▁tastes": 38527, "Cp": 79903, "▁Look": 11696, "▁sark": 217082, "𒀾": 249299, "▁photocopy": 126122, "================": 6977, "▁политика": 159061, "华": 238716, "▁regenerating": 193078, "asserie": 200005, "▁メガネ": 200271, "▁Expectations": 151933, "▁zure": 174226, "▁Braunschweig": 206961, "ξη": 48874, "▁экспо": 112713, "铆": 247204, "▁centímetros": 190157, "▁dedicate": 82084, "▁outbreak": 33151, "▁recessive": 120181, "▁Ин": 30240, "igure": 2698, "▁संवाददाता": 106209, "ыз": 64995, "スター": 40193, "쁘": 242866, "▁airbag": 146696, "ᅴ": 253165, "▁அளிக்க": 153617, "不妨": 214515, "nivel": 214483, "▁любое": 175467, "▁alleg": 8106, "ouk": 104780, "▁হামিদ": 216787, "▁ramb": 66464, "▁Eli": 36923, "েনের": 59829, "▁tenere": 155925, "▁competición": 225388, "큥": 254437, "AIR": 47112, "▁ситуации": 91874, "人用": 233260, "▁preterm": 173286, "▁स्टार्टिंग": 160179, "реа": 98752, "▁Snapchat": 91397, "▁suro": 205654, "▁maggio": 83524, "▁solver": 46992, "Battery": 94824, "▁বৃদ্ধ": 33795, "▁rivets": 156839, "▁النهائية": 230159, "▁Specials": 212373, "ếng": 83130, "Suggested": 132617, "▁hairs": 65212, "াম্প": 120938, "▁বানান": 227624, "durch": 160016, "▁নয়ন": 236616, "ignment": 6066, "▁језик": 73220, "modal": 16903, "▁нака": 118753, "🍄": 249517, "cił": 186231, "िक्": 7766, "ҳ": 238542, "▁pół": 91566, "𝖊": 250027, "▁bergabung": 168093, "getToken": 168405, "堺": 245072, "▁Birken": 209281, "▁Bj": 64042, "ctal": 85049, "▁group": 2299, "▁cellulite": 182577, "▁Akhtar": 187302, "হা": 26417, "<unused1693>": 257595, "یدار": 202957, "▁પ્લા": 228601, "Primo": 200329, "施設": 48453, "▁Ά": 112159, "ায়ণের": 214594, "égale": 210603, "▁Girls": 31863, "𒁙": 250403, "hund": 51570, "ygons": 170283, "▁mixing": 18531, "▁இடைய": 178220, "▁সাম্প্র": 80545, "<unused1187>": 257089, "ക്കുറിച്ച": 180908, "鿌": 254843, "ណ្ត": 145516, "▁Zeiss": 165083, "lık": 31644, "集体": 152237, "<unused1615>": 257517, "})}{": 128167, "Scul": 171645, "▁rooting": 117502, "▁Downt": 220344, "▁названия": 131204, "▁ngờ": 144659, "▁bishops": 73374, "▁engravings": 187798, "▁Thinking": 61755, "<unused1276>": 257178, "▁samba": 208126, "▁wading": 193416, "▁assurer": 81229, "راث": 220189, "hotra": 184609, "▁dones": 166157, "▁Paris": 9079, "dust": 62760, "advertising": 160007, "▁vrste": 184545, "lish": 2605, "▁læ": 51461, "▁Cedar": 64026, "Army": 121067, "ক্লো": 199382, "ում": 29816, "▁****\",": 122653, "▁Arrow": 57389, "恤": 243193, "मां": 146989, "▁organización": 54386, "▁erwäh": 116488, "▁स्वी": 36725, "組み立て": 200396, "ilerini": 149202, "就不": 58129, "Į": 243147, "ructive": 34389, "▁demonstrated": 13646, "▁Vine": 50513, "▁зара": 70875, "▁convexity": 168364, "▁purpure": 204011, "▁таким": 58492, "Members": 31946, "▁waivers": 156782, "▁Thackeray": 155984, "▁affirme": 229245, "▁memoir": 83783, "▁оско": 185477, "polis": 96466, "▁abges": 155662, "▁Warhol": 126045, "▁அவனே": 227835, "▁viszont": 210425, "мова": 87674, "▁সম": 2971, "chetti": 172945, "▁побы": 196693, "▁Peu": 201914, "▁৬০": 118240, "}{{": 165147, "ରେ": 87798, "整合": 96443, "…………………………………………": 118132, "▁práv": 100979, "▁splitpos": 214109, "出来ます": 154977, "factor": 19385, "▁proteins": 12483, "divisions": 215580, "BRE": 34602, "▁scouring": 211869, "릉": 243887, "=('": 126765, "▁хими": 79827, "Ou": 78134, "<unused5843>": 261745, "▁Hearst": 184646, "▁darg": 136704, "▁সত্যা": 178429, "▁ভোগ": 33257, "▁顔": 234337, "OGRAP": 58001, "▁doughnut": 226285, "▁naturally": 14769, "▁일정": 197132, "getContentPane": 124128, "败": 239771, "baliknya": 185957, "▁tout": 9966, "აშ": 94642, "▁lov": 7278, "Pict": 134166, "lings": 17593, "▁넘": 61417, "▁tablecloth": 97442, "▁perfecto": 71633, "igle": 185816, "▁Bees": 127488, "idać": 228738, "<unused5781>": 261683, "▁матрицы": 202771, "ៈ": 241364, "널": 241553, "▁isol": 3965, "論": 253149, "▁Fle": 18077, "▁StreamWriter": 191585, "老板": 111192, "▁portátil": 129792, "Pep": 164569, "▁पेयजल": 182780, "▁ülk": 102003, "આત": 179179, "▁salespeople": 205875, "▁Forward": 48447, "şt": 12807, "▁anastom": 117077, "े": 236807, "▁revolt": 83800, "DSA": 228390, "▁दिखाता": 172994, "Julie": 130882, "▁Nunes": 193916, "▁কানা": 132709, "archiw": 177117, "▁kişiler": 223981, "☣": 254150, "当中": 89675, "ổ": 237908, "借鉴": 236075, "體": 238952, "repr": 68466, "▁represents": 9282, "▁Param": 18809, "ண்முகத்": 131679, "azines": 32196, "ndt": 140108, "▁PSD": 79931, "▁csapat": 182110, "▁കമ": 190845, "൮": 249098, "▁torneo": 113942, "StackNavigator": 114019, "▁برق": 217323, "姿": 240293, "▁আট": 39068, "屋外": 191096, "▁Emin": 107319, "Rad": 17222, "ShaderType": 228500, "Université": 103810, "▁местности": 199327, "र्‍या": 199807, "φέρ": 111307, "ringle": 200164, "nyi": 118294, "▁Сі": 159264, "Korean": 119269, "▁Министер": 103923, "▁ウ": 37950, "嬙": 255574, "▁Sic": 41412, "<unused1818>": 257720, "に見": 90607, "沏": 251235, "▁hochwert": 109099, "吹": 240649, "thinking": 64980, "스가": 128130, "▁যুব": 47774, "鵡": 249275, "Duties": 210067, "▁infine": 158926, "▁тро": 57319, "▁Cust": 68116, "萎": 243783, "▁Reserv": 44535, "▁充電": 235132, "▁जाल": 104865, "苏": 239380, "▁Lapp": 189537, "▁runnable": 146836, "abc": 28180, "▁tử": 38572, "érico": 117170, "issão": 112775, "æs": 144588, "▁nenhuma": 111255, "圍": 241277, "മാർ": 109710, "▁krzy": 177086, "amu": 42348, "▁मिलेगा": 34794, "టకు": 158456, "collectionView": 201525, "द्वी": 166364, "▁Berc": 235199, "ёнок": 196601, "SIB": 84508, "金を": 196229, "documentation": 52078, "֨": 252313, "ässer": 166036, "তুমি": 97204, "マイクロ": 202482, "▁Lars": 114132, "ധിപ": 208501, "▁zgod": 74135, "▁Лу": 43446, "▁COVID": 7767, "▁Григо": 222390, "ണമ": 86566, "worm": 50342, "byteArray": 223799, "<unused5248>": 261150, "▁fett": 155297, "▁ক্ষমতার": 116418, "▁универса": 133590, "▁portrayed": 54056, "▁strengthen": 13878, "થ": 237735, "▁زینت": 197766, "नाइट": 100609, "▁سقوط": 211112, "是我": 63131, "▁Dalton": 78227, "▁Printing": 53592, "▁Propriet": 195186, "▁promised": 23015, "ampilkan": 85206, "수를": 75818, "◡": 247023, "▁announcing": 52071, "tim": 10696, "▁पर्सनल": 123982, "ﻮ": 245288, "寡": 243917, "<unused384>": 256286, "▁Cad": 30238, "▁eğitim": 99428, "▁conlleva": 232921, "▁conférence": 145621, "▁розподі": 205584, "laştır": 188186, "か": 237116, "orme": 192885, "▁PowerShell": 122316, "▁hợp": 18234, "▁নিম্ন": 85349, "▁JH": 113593, "▁madrugada": 151410, "minify": 210101, "▁contrasting": 68570, "ushed": 10593, "▁стадии": 181768, "▁fxg": 80972, "▁Sumatera": 176258, "▁evolution": 11294, "<unused285>": 256187, "raction": 7405, "▁Cop": 23137, "態": 239018, "▁обязательно": 84504, "ponder": 49661, "▁অন্তঃ": 159775, "▁offerte": 159782, "▁asistentes": 181800, "▁shouted": 55695, "լ": 239231, "PerformLayout": 74357, "▁우리는": 107676, "▁Athletes": 150046, "▁lily": 73554, "ขน": 117306, "靡": 244658, "▁struggling": 22684, "▁IAM": 145136, "虹": 242116, "▁অবিলম্বে": 107962, "чее": 155004, "▁χρή": 113171, "▁bijoux": 161656, "ですか": 73727, "▁Christophe": 123797, "开心": 118055, "His": 15989, "ग": 236886, "ர்ப": 41407, "▁ಅಂಶ": 196441, "০": 237425, "ılmıştır": 152061, "▁Regul": 148607, "▁دبستان": 195198, "÷": 241055, "▁tierras": 145651, "▁Device": 32236, "▁television": 13617, "领导": 54174, "وامل": 124903, "Evolution": 115218, "テンプレート": 204398, "deb": 53417, "|.|": 141738, "ፖ": 242420, "🎳": 255851, "ައ": 47163, "▁पढ़ेंगे": 52023, "medizin": 203901, "▁founder": 20629, "Assuming": 83033, "ૂર": 76200, "▁Poh": 119310, "?...": 72741, "㊗": 249568, "වල": 82240, "YM": 152427, "▁Agro": 86231, "iest": 15163, "▁متابعي": 230857, "▁सिर": 38227, "ೀವ": 79264, "▁Offenders": 179852, "GetName": 83604, "▁grap": 25502, "✗": 244844, "AVY": 156963, "▁tangle": 184892, "utacji": 172491, "ハマ": 119715, "BooleanField": 141990, "procedures": 193969, "▁reseller": 226328, "▁Неза": 225353, "▁dined": 201835, "▁التعليم": 70948, "یوں": 130435, "ORDON": 206522, "▁favorit": 127618, "▁بول": 57918, "▁spl": 9141, "岔": 246003, "esters": 100845, "લાઇ": 195306, "ណៈ": 207972, "شارك": 227531, "bride": 92189, "鐧": 255904, "▁Ernährung": 166009, "▁disposição": 228687, "ertown": 130395, "akte": 72421, "▁perceptions": 50088, "▁servidores": 147067, "▁اکاؤن": 131514, "▁outfitted": 178726, "orem": 4944, "▁जम": 60022, "Virat": 235590, "▁بینک": 195937, "▁hottest": 65438, "Bom": 48945, "▁transformed": 22094, "▁Če": 145742, "peč": 105453, "িকাংশ": 65847, "resource": 14383, "▁робити": 212281, "ர்களையும்": 200435, "ารถ": 34919, "kat": 10876, "ਆ": 239194, "ডস": 216793, "subprocess": 112454, "覽": 242054, "iriman": 204885, "▁pelle": 91105, "▁सस्ते": 168548, ":\",": 23168, "부터": 26691, "Т": 237318, "关": 237739, "🔮": 248208, "▁chứng": 55891, "▁लाभ": 19600, "脤": 253776, "<unused899>": 256801, "▁eleven": 36707, "▁fuese": 236583, "imbledon": 85627, "Diverse": 235312, "𒋝": 249295, "▁verlassen": 147365, "▁oreille": 224167, "一方面": 145679, "ㅁ": 239728, "ré": 11460, "▁देखिएगा": 72738, "បើ": 149257, "显著": 129251, "▁protest": 13456, "```": 2717, "্চ": 5910, "▁Gestión": 174496, "▁finding": 8159, "žití": 212422, "녀": 240777, "labs": 76119, "​—": 203428, "▁অপসারণ": 182312, "ونی": 28532, "▁навы": 122259, "wheeled": 230525, "▁ocurrió": 138527, "णाऱ्या": 55271, "ymbol": 2522, "ager": 2928, "▁бара": 117288, "▁BBC": 23372, "▁probablement": 100550, "iana": 9464, "Gen": 14696, "▁भया": 234222, "▁तिलावत": 129256, "▁डूब": 118187, "onDestroy": 173536, "▁cuticle": 167795, "▁gacchati": 129328, "▁Sliding": 216183, "▁되었다": 143240, "|=|": 164856, "otics": 34403, "❤️❤️": 188643, "▁файлы": 131712, "▁dut": 7307, "▁Comb": 21807, "▁પ્રાર્થના": 230449, "▁অক্ষয়": 221722, "▁DWI": 223300, "▁pärast": 165503, "ຄວາມ": 73403, "▁sprays": 89336, "▁Hd": 203583, "лец": 77053, "тация": 88244, "▁शेप": 216997, "Delayed": 167772, "鳃": 248193, "▁Ս": 144602, "▁பகுதி": 125572, "Flor": 44406, "▁Angular": 59107, "cultured": 227467, "▁கி": 19584, "RATE": 118748, "▁guesses": 87945, "▁affiliates": 71978, "▁Canon": 43303, "樂": 255367, "▁ಕೆಲ": 55453, "嬰": 243882, "▁mich": 21670, "Ti": 30284, "译": 239924, "꺄": 251858, "̉a": 130070, "伊藤": 227252, "许可证": 222378, "▁oliva": 165057, "▁Zuh": 170186, "▁neighborIndexs": 143045, "▁curse": 57391, "드": 238001, "<unused5702>": 261604, "▁cria": 77296, "仔": 240634, "gym": 95190, "▁দী": 28432, "ចូល": 102070, "quilla": 127001, "▁meninggal": 138508, "Opportunities": 100510, "▁Mme": 90163, "▁நிலையத்தில்": 118781, "這邊": 114299, "ubb": 58282, "िलासपुर": 231139, "▁causation": 136740, "ネットワーク": 110028, "▁Unsupported": 137105, "▁गोपाल": 133476, "▁Trails": 42055, "preventDefault": 26710, "েন্টস": 97575, "izos": 150885, "▁θέση": 189699, "䀠": 253181, "▁प्ले": 29786, "▁potentiel": 115897, "▁CTRL": 169492, "▁ટે": 93674, "ksom": 101761, "▁പോലെ": 165855, "<unused2029>": 257931, "كينا": 186449, "rafl": 195259, "▁пър": 108895, "▁ব্যথা": 117668, "▁prez": 36096, "▁synced": 177430, "ḧ": 252617, "低于": 121071, "▁груп": 28082, "pection": 12810, "▁beschrieben": 157370, "▁heirloom": 187557, "▁例えば": 213108, "▁caballos": 210942, "▁overdrive": 217981, "▁ক্লাস": 127110, "▁ምልክ": 164239, "igr": 123627, "▁PUBLIC": 43956, "閣": 242666, "的主": 59608, "ђ": 239996, "▁minced": 113033, "▁haj": 122351, "▁Comment": 18778, "ssd": 229035, "かどうか": 147474, "▁budget": 7715, "མ་": 144120, "▁जीनत": 194590, "addin": 139475, "<s>": 203, "▁dovoljno": 213355, "システムの": 218225, "ToAction": 88700, "тории": 119261, "▁kişilik": 230338, "▁Sachen": 156631, "texto": 77741, "łon": 215666, "▁সবে": 216428, "それでも": 153066, "▁দেবযানীর": 169664, "▁balón": 206104, "quirrel": 61503, "Refrigerator": 97536, "▁片": 139461, "会对": 210728, "▁Google": 6475, "Efficient": 174890, "▁Valence": 230112, "▁shoved": 157665, "▁टीका": 69076, "Ornament": 205753, "▁exatamente": 109084, "<unused360>": 256262, "р": 236839, "▁Util": 31665, "▁Generic": 64845, "jumlah": 223880, "<unused2273>": 258175, "▁संबोधन": 173382, "antiene": 82570, "ന്ധ": 46395, "▁വളരെ": 123005, "▁LEAD": 134687, "▁sphinx": 235795, "▁coupon": 36636, "▁UR": 46412, "▁NSamps": 207910, "宇": 239857, "▁Lemon": 62390, "੩": 252601, "stein": 10502, "igheden": 121392, "▁Auditorium": 127849, "سب": 11598, "orgt": 153526, "點": 238745, "▁spotted": 32637, "mData": 139316, "reason": 27388, "▁precedents": 184058, "Arms": 181772, "eken": 42911, "▁last": 1774, "▁Вале": 203334, "responsive": 50116, "▁Sanger": 184908, "KO": 31823, "addTarget": 232901, "▁Lift": 79493, "▁sueños": 132177, "▁Werke": 146972, "▁nitrification": 227799, "insurer": 195197, "▁braiding": 131528, "encour": 198357, "▁Kunden": 48922, "▁conquer": 60003, "rologic": 138059, "simply": 118290, "▁थ": 2038, "小說": 176730, "▁করছে": 19237, "ಾಗಲೇ": 184670, "<unused4148>": 260050, "▁Zaw": 169772, "取扱": 193770, "▁जागरण": 173182, "布": 238087, "Lake": 64947, "TimeDict": 226689, "▁सज": 128795, "อย่า": 199548, "Critic": 211642, "▁geography": 53842, "ைச்": 186149, "▁cows": 28314, "꿇": 251379, "Maven": 33544, "▁Peace": 25001, "tol": 22361, "править": 104588, "DING": 148661, "ዦ": 255921, "ዣ": 244287, "▁содержание": 146350, "▁pendent": 224227, "▁Kor": 27978, "▁polls": 39840, "रोज": 56323, ">}": 91849, "▁dna": 108240, "ٸ": 254659, "izu": 73582, "<unused6015>": 261917, "ATOR": 29257, "nilvadipine": 228276, "▁direzione": 154357, "aculate": 115867, "▁Somers": 214626, "▁கிஷ": 157654, "▁Hello": 26352, "輋": 250783, "strategies": 224845, "加以": 199145, "strahlung": 144806, "▁cardiomyopathy": 175224, "▁Fischer": 56219, "▁Algerian": 184027, "▁পৌঁছে": 86799, "▁Newtonsoft": 134584, "▁cuarta": 154670, "▁attainment": 78501, "夗": 254802, "▁candidature": 188078, "ক্ষের": 234591, "▁RADIO": 103344, "Modes": 103619, "▁হৈ": 193589, "$_{": 151170, "▁stren": 95783, "▁milhões": 70951, "Basketball": 203403, "▁liberar": 203144, "<unused5434>": 261336, "Initialize": 37258, "링크": 98951, "Bronze": 163597, "اقات": 218171, "用地": 128800, "etapkan": 184108, "▁kami": 23197, "raad": 144756, "▁प्रसाद": 57184, "جهه": 194705, "▁QU": 29809, "▁المنا": 74178, "▁pigeon": 85173, "sectional": 59231, "Relax": 119155, "橢": 247060, "▁krank": 208714, "▁übertragen": 176871, "ゴルフ": 101254, "▁lounging": 186524, "壢": 248396, "▁Великой": 225632, "Func": 19332, "eteries": 147423, "本科": 149451, "}^{*": 12527, "নিজের": 195472, "▁tends": 22827, "▁بيه": 232309, "▁nuove": 87188, "ammlung": 125156, "wag": 92401, "ঞ্চ": 12988, "▁meist": 75931, "▁terhadap": 40690, "▁箱": 163948, "UME": 61508, "▁bened": 159175, "#############": 127809, "xe": 8248, "粨": 252168, "▁atribu": 124840, "paypal": 133238, "▁डिफर": 70776, "▁маса": 186594, "▁dejó": 95260, "▁ಕಾಂಗ್ರೆ": 209649, "▁হও": 224186, "kých": 101134, "▁transpired": 163038, "failures": 185850, "blico": 220082, "ynchus": 157869, "个数": 112487, "▁Tunes": 230662, "さんが": 62044, "▁assignment": 18327, "▁Clearly": 40345, "▁ಒಳಗ": 176412, "▁mk": 38144, "ÁS": 146381, "▁Availability": 75669, "วรร": 158620, "▁einzel": 64320, "▁dictated": 89757, "▁Herman": 70088, "▁souvenir": 91038, "ONEDB": 183870, "▁مرحبا": 150423, "ленность": 130297, "吭": 247095, "occur": 73561, "▁produktu": 134390, "字节": 91699, "▁Substitution": 171551, "▁пишет": 156998, "▁savent": 204949, "▁билет": 152323, "mousemove": 125814, "ர்க": 5005, "▁realignment": 233813, "▁काला": 117289, "▁mulher": 50114, "ffiti": 54936, "raquo": 123031, "▁meines": 203704, "Ticker": 127274, "▁Herzog": 125430, "▁reson": 14271, "setPreferredSize": 228296, "▁\"/\"": 43233, "▁discre": 30192, "𒌊": 251530, "🅐": 255484, "outgoing": 232144, "lepší": 186771, "抉": 246407, "Neutral": 20809, "▁записи": 99016, "▁ao": 8753, "▁adoptive": 139514, "विचार": 195967, "<unused2443>": 258345, "▁criação": 109588, "▁esfuer": 55711, "▁coseno": 221067, "▁turntable": 155895, "ORIENTATION": 100626, "▁Hội": 120790, "melee": 101438, "meti": 198032, "discord": 59987, "▁Beled": 96134, "▁न्यूज़": 65650, "蠡": 251596, "▁gates": 33361, "েকে": 4707, "ލ": 240895, "▁Datum": 148587, "েবে": 17469, "ชน์": 137677, "statics": 180359, "ramework": 4195, "▁Oklahoma": 32856, "BRUARY": 167874, "▁reptiles": 92748, "▁Cur": 11094, "Neighbor": 136092, "▁Hex": 52999, "greeting": 106323, "Wah": 163799, "ENCED": 189121, "▁Jimin": 153328, "trex": 164467, "▁muse": 53701, "▁difficultés": 121180, "▁たい": 62273, "数组": 58905, "▁Safe": 30164, "▁Vasily": 224054, "omer": 11197, "datal": 62705, "Hungarian": 124855, "▁vc": 64036, "▁ㅎㅎ": 178794, "elola": 105081, "▁proceed": 7162, "▁plainly": 76206, "表面": 52325, "URS": 66481, "ുമോ": 212411, "▁Kies": 174907, "闾": 251020, "!(\"": 36492, "▁stillness": 179122, "▁Lyrics": 40263, "▁частини": 228936, "▁–,": 213861, "▁Cartan": 156320, "珂": 244781, "걱": 243964, "▁Configuration": 35265, "▁conting": 32966, "▁Rio": 23249, "▁הראש": 107092, "▁पृ": 29543, "▁σου": 127035, "<unused4508>": 260410, "Parking": 59153, "▁adrift": 218164, "▁tact": 17917, "ϴ": 254999, "▁apocalyptic": 179188, "('/')": 66918, "▁EASY": 126729, "ikli": 165416, "DataContext": 162313, "olded": 133102, "▁predomin": 24940, "巨大": 87939, "<unused6186>": 262088, "▁पोल": 52207, "ackBar": 124554, "ByDefault": 202141, "शासन": 98754, "▁Mama": 61107, "하기": 30378, "áme": 103725, "Elements": 20807, "▁Transl": 50311, "iker": 19378, "▁Havana": 99162, "▁sols": 125031, "▁ابت": 97600, "antik": 127801, "▁listo": 107134, "▁fertilizer": 46363, "Zx": 177715, "慶": 241532, "▁seção": 217753, "▁cảm": 31889, "▁integration": 12434, "specificity": 202333, "BD": 11217, "▁bin": 10915, "놉": 253334, "ずれ": 81773, "▁Ninh": 158873, "Ethyl": 105103, "झन": 232758, "летие": 218475, "<unused966>": 256868, ">().": 43875, "▁الجسم": 123071, "outen": 146065, "ựa": 46101, "▁Aseg": 163049, "FAT": 124790, "Waar": 232801, "▁selves": 105436, "xaml": 63063, "を使う": 127144, "▁武": 101351, "inspect": 118821, "Dataset": 41032, "▁Wales": 19842, "িয়ায়": 161930, "hipp": 110988, "▁окон": 59794, "▁dauert": 215376, "▁unul": 133474, "▁चार्ट": 126480, "lectic": 81063, "ג": 237805, "▁formado": 111581, "soundcloud": 234050, "ंपेक्षा": 204670, "▁remplacer": 146549, "▁sympathize": 210287, "ACTIONS": 53334, "定义": 27428, "▁Hole": 60587, "▁শাসকদের": 183216, "Thousands": 119036, "▁क्रा": 49709, "izoph": 65544, "▁inv": 1379, "▁lisse": 170570, "▁نیز": 40334, "▁intimidated": 125096, "▁Politique": 118669, "推定": 212650, "▁চু": 142933, "▁fuselage": 135598, "▁confining": 163787, "<unused5223>": 261125, "▁accl": 109354, "\"。": 225151, "▁치": 50017, "<unused2919>": 258821, "ীদ": 94520, "向下": 205093, "▁Capit": 99668, "jumping": 227311, "▁மாவட்டத்தில்": 154053, "▁दि": 16036, "种类": 159560, "დ": 237485, "▁santo": 109598, "▁Builder": 55904, "▁estacion": 97619, "રા": 14320, "▁insures": 221844, "эль": 166843, "▁letzte": 97970, "▁dovrà": 171377, "json": 3723, "接種": 142204, "weapp": 233614, "▁CARB": 203830, "▁Tabel": 211571, "▁dimens": 208934, "▁malware": 60399, "▁фотографии": 122981, "▁maximising": 225164, "▁කිරීමට": 124489, "▁singularities": 93211, "▁tentativa": 193970, "▁painstaking": 126827, "AutoSize": 31429, "▁Scor": 233086, "▁shēng": 225536, "<0xCA>": 440, "ious": 1434, "▁вод": 93004, "▁FISA": 152482, "▁कनाडा": 159881, "▁sloppy": 134984, "窃": 243750, "Dado": 141527, "hann": 122288, "▁interferes": 129163, "ங்களிலும்": 120320, "Officer": 193907, "▁tubercle": 229627, "▁nub": 132062, "ôtels": 115147, "▁genieten": 214821, "visit": 37620, "▁gốc": 76253, "𒆄": 252973, "вени": 140028, "▁стоковые": 219457, "ipo": 26447, "erà": 155259, "ตั้ง": 55788, "▁showroom": 79503, "或者": 19489, "▁maka": 32458, "▁हमारे": 11384, "masing": 90022, "": 253559, "్రహ్": 216602, "<unused3163>": 259065, "▁perdón": 131582, "▁ilang": 157058, "𒆈": 252975, "▁نشده": 197591, "illustration": 55877, "▁Задача": 219424, "scrollHeight": 193909, "ለያ": 108804, "fallen": 89066, "▁UTF": 92916, "▁خواب": 97248, "▁сад": 128924, "ends": 2068, "方に": 124601, "▁cottonseed": 235889, "getInputStream": 109156, "▁Badajoz": 225382, "▁kona": 160400, "гляда": 133332, "▁omega": 48803, "plicates": 92301, "衅": 245781, "MUN": 204543, "msubsup": 19772, "▁যাঁরা": 232792, "<unused5385>": 261287, "▁चाहे": 48315, "▁methodologies": 61404, "<unused5480>": 261382, "wso": 195549, "Mit": 40348, "▁autob": 71994, "▁zda": 162134, "وبة": 101872, "▁toxicity": 36260, "<unused6053>": 261955, "▁प्रत्ये": 194334, "▁loophole": 176497, "▁Nove": 209148, "▁mortals": 200072, "▁weekly": 16789, "垃": 241227, "<unused2675>": 258577, "peri": 96955, "▁engines": 18362, "Sensitive": 182638, "▁fon": 12482, "erna": 32170, "uncle": 188009, "繁忙": 163845, "▁deflection": 68469, "Prevention": 178110, "一心": 233605, "▁धनराशि": 140103, "▁parades": 156304, "ycop": 162132, "ܫ": 241787, "▁fakta": 169431, "▁బాధ": 207315, "▁Hilfe": 74113, "Türk": 159807, "▁معرض": 190392, "🥨": 254975, "▁clauses": 52011, "▁scStudentVector": 147560, "NRC": 172879, "▁වේ": 63851, "ниця": 163550, "家乐": 151688, "remeno": 222387, "▁σ": 4824, "▁গভর্ন": 174312, "emph": 27889, "▁باش": 21422, "ঙ্গল": 47831, "▁ghe": 145250, "▁Botanic": 143115, "wnie": 34604, "▁myArray": 163589, "▁Ursula": 134117, "য়": 1216, "▁ಚ": 30156, "EMON": 214082, "▁macOS": 79325, "▁انه": 40765, "drm": 191173, "ibirsk": 157647, "أ": 237143, "▁কাশ": 138428, "ianza": 46534, "▁işte": 227040, "Wagner": 225407, "▁करण्याचे": 166796, "▁Bitte": 80355, "▁Daph": 111870, "staben": 187101, "曷": 252181, "Portland": 160766, "▁mph": 44269, "▁recetas": 171357, "रान": 60241, "▁conhe": 25763, "▁डिजाइनर": 187577, "Carn": 136700, "▁Pandit": 175396, "booked": 154201, "Naissance": 226439, "('-": 36854, "AvgSummer": 100250, "әк": 212259, "看板": 206346, "嘞": 249778, "▁irrigation": 33314, "▁그룹": 170527, "▁toa": 231008, "๔": 245930, "പേക്ഷ": 222405, "ecommerce": 154810, "▁habitaciones": 108608, "▁ঘুর": 113192, "akti": 56497, "▁dis": 864, "▁ট্রেন": 92606, "▁நடைபெறும்": 196323, "▁Joyce": 47888, "▁racks": 73756, "▁deten": 94591, "▁Deputies": 190370, "▁공개": 99443, "▁exs": 236381, "▁Artikel": 55322, "rieden": 113095, "▁cal": 1421, "▁ilumin": 76687, "羢": 255108, "زالة": 195505, "▁benevolence": 207682, "▁decarbon": 145682, "▁Rawls": 231902, "▁రిలీ": 162426, "▁कुशलता": 222369, "eterminate": 166422, "▁Во": 18100, "▁bols": 45150, "რც": 231867, "▁begint": 188053, "िब": 153230, "浒": 247579, "侦": 243373, "uristic": 30149, "▁jezika": 231141, "giving": 24502, "隂": 250227, "栆": 253190, "驷": 253650, "▁Secretaría": 118358, "▁investigates": 108389, "▁অয়েল": 198110, "▁bebés": 187587, "hamton": 148771, "▁बह": 43473, "▁види": 85719, "Examin": 171100, "ोज़": 112324, "ᱥ": 245971, "▁presented": 6212, "▁elf": 64201, "company": 25385, "▁النبي": 155942, "突出": 111398, "ibid": 99750, "▁Glitter": 144021, "▁persamaan": 141094, "▁빨리": 214927, "irmer": 207134, "hase": 148900, "▁Stevens": 36386, "credit": 31443, "▁लिह": 156892, "ҙ": 241638, "结算": 193328, "descriptions": 176231, "▁pavilion": 89456, "orda": 51222, "▁Exhibition": 60024, "▁Crest": 81299, "▁পুরুষের": 134514, "<unused3567>": 259469, "▁cloak": 72527, "▁cỏ": 218956, "ைக்": 23832, "煸": 248098, "ફ": 238485, "ẳn": 176691, "▁protagon": 28280, "▁Otherwise": 27587, "訲": 249845, "▁गौ": 53327, "▁atractivo": 177792, "ଈ": 255937, "▁religious": 12352, "ocin": 86905, "▁söyled": 103382, "してた": 205272, "肛": 245452, "▁органі": 145585, "▁microbe": 197783, "<unused2504>": 258406, "▁Mim": 89321, "▁النار": 182583, "▁가정": 205892, "▁clings": 182122, "SEED": 174511, "णातील": 185872, "▁Boxing": 88377, "▁lud": 40008, "নিষ": 176906, "વાય": 128973, "屆": 242669, "▁gym": 15346, "一脸": 154064, "▁cham": 28098, "▁insecure": 90740, "PHEN": 178758, "(\"\")]": 121811, "GB": 8242, "▁sud": 13507, "imit": 17331, "شرين": 172923, "SK": 21775, "▁빈": 156196, "▁familiarize": 128689, "Entrance": 181272, "<unused4189>": 260091, "katana": 234142, "痛": 239345, "▁क्रीम": 114068, "Same": 35445, "ieved": 6379, "▁विडियो": 88987, "▁phù": 68811, "▁آنے": 134484, "▁zamknię": 229090, "元素的": 186170, "gv": 88145, "▁Anlagen": 179210, "▁packed": 21064, "▁painted": 16715, "▁შეს": 73568, "rind": 148918, "医师": 226092, "▁!\"": 103970, "обре": 49281, "Male": 39908, "のお店": 168478, "jsonify": 180982, "▁அவரது": 80316, "▁bert": 27802, "▁=='": 155497, "▁uptake": 35433, "flexible": 132457, "▁quell": 121417, "ideon": 117946, "▁liel": 193412, "▁household": 13136, "prima": 139630, "▁Forrester": 109082, "▁Ava": 110638, "豇": 254411, "▁અધિકારી": 147574, "▁হয়েছে": 25851, "▁Kath": 25707, "fin": 6888, "▁தங்கள்": 119827, "Amar": 173904, "▁FontSize": 192263, "Older": 141136, "SUM": 35287, "▁পুনরুদ্ধার": 213165, "दिया": 103114, "roscopic": 89019, "▁настоящего": 160242, "遥": 241832, "ﭜ": 251273, "▁CORPOR": 75037, ":::": 51203, "機の": 162860, "▁readability": 122499, "和小": 155791, "isha": 19624, "▁ওষুধ": 55920, "ｗｗ": 153997, "观众": 75406, "快樂": 161535, "▁Hepburn": 152595, "grad": 6148, "▁comprehensively": 131510, "▁traveler": 67302, "▁त्याला": 90363, "WIRE": 157516, "identify": 138472, "▁TextInput": 106126, "ckiego": 191393, "▁कमरे": 80466, "▁τρόπο": 216099, "▁TFT": 186949, "ITURE": 201245, "▁शुक्ला": 105595, "▁Crou": 141831, "▁vero": 62628, "airflow": 214656, "▁सर्किल": 178084, "▁Parma": 113022, "Lam": 61858, "▁Empresa": 187313, "▁déta": 74034, "局部": 106616, "LOGIN": 79480, "方位": 162296, "وقال": 160336, "▁गुम": 229023, "▁الرقم": 153770, "video": 10540, "▁mantenimiento": 81388, "Idle": 44336, "新": 237365, "float": 8344, "▁posibilidad": 59961, "Լ": 244519, "territ": 160489, "atka": 225339, "▁bacter": 10327, "스러": 140396, "▁आंकड़ा": 184621, "▁जबाब": 191548, "▁brings": 12076, "▁prezident": 180283, "录取": 224545, "吒": 246693, "म्मे": 33942, "▁गरेको": 119869, "passen": 134663, "▁sä": 38219, "▁Urb": 67348, "▁layup": 197621, "menopausal": 181955, "嚇": 243960, "▁Datei": 140840, "▁Inorganic": 162478, "▁stb": 193620, "▁Sos": 70838, "▁அண": 133256, "▁हड़": 133768, "ೂರ್": 77706, "▁européen": 139592, "▁Cameron": 35372, "Lime": 206143, "▁precedente": 107950, "▁#'": 131428, "стым": 218841, "▁التاريخ": 95518, "的一切": 131028, "▁दक्षि": 40848, "September": 36022, "▁Passion": 67194, "▁அம": 32824, "ustering": 142482, "▁midway": 82565, "▁Бет": 171391, "▁Somali": 132552, "▁READY": 145930, "▁Punta": 107386, "▁cercanas": 203248, "▁\".\")": 222035, "physiology": 188496, "ረው": 234387, "stärke": 233678, "▁حصل": 164897, "▁mengakses": 228488, "olar": 7556, "⸝": 246831, "▁gracias": 34866, "▁riconosci": 182578, "<unused2487>": 258389, "▁etk": 61608, "▁cruisers": 147032, "<unused117>": 256019, "▁Monter": 67018, "▁Opp": 31318, "▁Shortcut": 93708, "▁stylesheets": 233934, "▁Alloc": 94379, "▁ELISA": 75730, "デン": 63139, "вича": 54715, "▁എന്നതാണ്": 209923, "anii": 90815, "レビュー": 115157, "▁बाधित": 199098, "awarkan": 96557, "▁managing": 15724, "▁причина": 89876, "▁ライン": 203155, "حدى": 184586, "sense": 89960, "baan": 203433, "тию": 79949, "▁emisión": 221383, "▁comforting": 83496, "▁کردم": 123756, "▁manifestaciones": 165790, "ഡിയോ": 134900, "▁utilitarian": 153683, "▁Being": 21966, "▁cinco": 30079, "▁Seeking": 149448, "▁থাকলেও": 88816, "Schwe": 162200, "▁पोखर": 128534, "wake": 82627, "▁toler": 14331, "▁প্রকৃতপক্ষে": 175222, "Mars": 81522, "▁அமைக்க": 100124, "▁группе": 132178, "▁Canvas": 42976, "▁spod": 107911, "▁Novos": 133737, "▁ruptured": 186699, "▁edil": 56307, "zs": 64727, "▁वर्ष": 13117, "ower": 1315, "aigne": 189697, "▁globules": 187258, "咋": 243976, "festival": 134350, "ೇತ್ರ": 94794, "▁Carmel": 99711, "JAVA": 73830, "AVAILABLE": 137120, "▁strangely": 99417, "▁meetings": 13721, "duke": 230913, "▁tabBar": 179926, "詃": 252536, "▁فات": 93098, "heroes": 121404, "▁Wolver": 72860, "▁Atm": 49567, "▁walkway": 97720, "▁charter": 31795, "}$&$-": 210916, "▁Fish": 24835, "憨": 245551, "▁Beatty": 136326, "▁Whitt": 96793, "▁Malgré": 188415, "▁Compost": 176240, "▁backers": 139513, "▁Giải": 131233, "▁ancient": 12440, "सिल": 35140, "▁Cause": 42264, "কাত": 34183, "▁Mustache": 181443, "▁الزرا": 228666, "▁sucedió": 202583, "natural": 23014, "<unused4405>": 260307, "▁بۆ": 98415, "▁Кита": 212746, "▁Kale": 79484, "Vue": 81895, "▁سازمان": 99736, "▁traduit": 201219, "▁Apex": 96599, "▁অক্ষর": 200447, "▁ALLO": 71377, "日が": 218599, "▁Beasts": 172001, "Cities": 74211, "ighth": 16101, "(`./": 193604, "เสริม": 135768, "वेद": 48426, "дий": 73491, "▁Wharf": 117663, "▁inconsist": 95431, "▁tendrán": 106572, "মিন": 114177, "Letters": 69813, "嘹": 250305, "潛": 242130, "uiar": 214703, "acter": 2013, ")”.": 171511, "ખ્યા": 150474, "<unused4453>": 260355, "#": 236865, "▁statues": 59150, "▁Karm": 154718, "▁CIM": 167916, "▁realtà": 64003, "eward": 31369, "▁denominations": 114410, "▁harán": 233769, "⿶": 253975, "▁Isso": 52405, "Coefficient": 73840, "▁mesaj": 130728, "வீ": 34578, "▁стан": 67342, "ब्रे": 98335, "▁সেটি": 93364, "ّل": 178764, "▁às": 32785, "▁buscas": 214179, "▁TEAM": 117703, "起こ": 66167, "FALL": 138152, "▁nied": 52900, "शिलाजीत": 201110, "<unused2211>": 258113, "▁slapped": 108246, "▁tenang": 158160, "宿": 239813, "HELLO": 174886, "▁segurança": 61056, "iyatiti": 174167, "▁cuidar": 111971, "})^{-": 131730, "favor": 124717, "▁हरे": 108829, "▁عندهم": 217507, "ដៃ": 156975, "弱": 239732, "authorised": 146713, "▁hong": 67546, "ဿ": 246087, "服务器": 38542, "इसी": 93822, "♰": 252787, "▁Scala": 95953, "uszcz": 146183, "<unused1493>": 257395, "系数": 146809, "▁രൂപ": 90084, "▁SPT": 164616, "▁qualunque": 205426, "▁Erfurt": 234366, "▁Cruz": 30983, "ዌ": 244281, "ać": 60289, "ảnh": 25353, "▁céd": 134863, "▁আপনাদের": 78013, "▁చూ": 43483, "克斯": 121670, "msen": 192235, "𝑠": 247993, "Emo": 126922, "▁multiplicación": 168754, "▁Frazier": 142603, "込んだ": 153002, "▁NT": 24505, "rtl": 83350, "▁beetles": 115614, "ிலான": 100277, "▁niektórych": 208474, "▁بھارتی": 115413, "▁Kin": 34635, "▁unreported": 216091, "腱": 246454, "▁Dominik": 163878, "itatis": 186276, "あれ": 137236, "₮": 253526, "ardless": 35639, "▁没有": 151050, "▁beads": 39440, "ียม": 143747, "▁femme": 36966, "▁traveled": 33402, "▁disappro": 95868, "▁Diz": 91409, "няў": 216780, "Musik": 227401, "▁tailor": 49523, "ēr": 83867, "▁Wasser": 36621, "人们": 47707, "▁FILM": 178668, "वं": 85208, "▁जन": 11396, "盛": 239539, "▁ফাউন্ড": 177674, "▁tacos": 82142, "▁iu": 154484, "▁VAC": 140220, "▁риск": 155120, "чук": 93685, "▁просмо": 129674, "▁Addition": 75238, "𒈂": 253017, "ۀ": 242623, "▁ಪ್ರದೇಶ": 150635, "▁allevi": 102206, "➙": 253352, "▁Wyd": 127884, "▁profesora": 104599, "ώ": 246935, "▁ತೊ": 181191, "▁vivere": 139285, "▁collector": 35936, "மாய": 225505, "oja": 113738, "மது": 101751, "▁carico": 184503, "▁adoption": 22109, "Refer": 28906, "вшие": 78918, "州": 238644, "klam": 67932, "▁Ар": 18931, "bilisi": 129638, "▁derby": 106392, "フォーマンス": 139977, "▁लग्": 185019, "▁Tabla": 230803, "▁जेटली": 216540, "▁vielf": 145506, "▁sowie": 25490, "▁운동": 106469, "ાઈ": 45888, "zelf": 67440, "島の": 172749, "▁பெரும்பாலான": 177629, "▁lệ": 59123, "▁හේ": 220538, "▁हौ": 128580, "▁Remarks": 103021, "▁Philippines": 23514, "esecuzione": 232714, "▁SCREEN": 73996, "▁gì": 23336, "öny": 211622, "ないので": 165519, "▁яв": 87116, "▁Vogel": 110176, "▁produce": 6360, "▁respuestas": 96438, "▁পাচ্ছে": 138813, "▁Encode": 156512, "▁posiciones": 144062, "playback": 213002, "▁වැඩි": 166085, "▁Postal": 73899, "▁তারাও": 226769, "Kind": 21299, "<unused4460>": 260362, "▁Converts": 114248, "▁elaborado": 174294, "ियो": 4863, "shund": 123978, "▁Sult": 169328, "搆": 247484, "प्रमाणे": 97643, "веро": 101421, "kangaroo": 73970, "жих": 194766, "sterne": 129547, "、$": 215767, "ampe": 230938, "▁Frozen": 83443, "▁bitch": 68722, "▁வழியாக": 122052, "▁✓": 71201, "愧": 243132, "▁svoju": 107176, "▁হস্তে": 140750, "▁comrades": 98334, "damage": 61623, "▁exoner": 172021, "▁manhood": 174121, "▁जिंद": 230050, "行业的": 158182, "▁kalk": 89436, "▁reported": 4785, "▁सलाहकार": 138022, "alo": 9124, "▁Uma": 51378, "Dong": 169587, "▁R": 630, "▁minif": 167108, "▁ダウン": 172196, "anda": 5928, "▁fours": 111008, "rectangular": 164853, "porto": 223645, "▁ICM": 70559, "acup": 202085, "ченко": 110003, "籬": 249836, "▁WASTE": 135679, "োয়া": 166210, "▁Carls": 148141, "waukee": 41249, "▁substant": 9906, "▁Price": 14584, "▁വന്നു": 236722, "▁frit": 96454, "▁পরিস": 22154, "<unused2706>": 258608, "▁Editing": 84226, "▁டே": 190128, "▁mancan": 201137, "▁cross": 4071, "原型": 204954, "▁ज़रूरत": 162525, "adorable": 170177, "ংশের": 209394, "▁العديد": 91800, "ABE": 132235, "榮": 242004, "▁Conform": 177485, "▁Букмекер": 24463, "▁maternity": 70380, "▁ASC": 45140, "<unused817>": 256719, "▁inden": 127478, "ിക്കുന്നത്": 112133, "▁Girona": 177592, "▁médi": 67196, "▁CpG": 203529, "▁Overnight": 131199, "▁unicorn": 56156, "ảm": 28416, "▁sleeper": 134428, ">//": 85674, "▁iban": 136911, "activer": 191053, "IRIS": 219981, "ocèle": 194543, "▁lyric": 84924, "▁trajet": 60192, "ナトリウム": 205204, "一段": 71553, "▁unlike": 21304, "Peripheral": 69395, "केर": 232608, "エンス": 212879, "本机": 228519, "یب": 143348, "▁peine": 51042, "inline": 9892, "지막": 84106, "▁கீழ": 96588, "eol": 179000, "<unused1307>": 257209, "▁осві": 125932, "plash": 143367, "pods": 122458, "▁করলো": 115120, "IPP": 53330, "▁महाविद्यालय": 142833, "parity": 69648, "针对": 50911, "𒍑": 251531, "Perspective": 121343, "лени": 131325, "▁mey": 140019, "▁כבר": 202003, "▁아니라": 71032, "resco": 138307, "Terror": 168615, "istatic": 232828, "tuples": 186473, "hém": 178438, "▁precipitates": 125557, "▁Helm": 63361, "archivo": 160372, "▁verantwort": 115493, "▁私": 60703, "ያ": 238030, "aphore": 67708, "▁daisy": 99414, "▁potrzeby": 222621, "▁candidates": 13176, "ಾಟ": 168037, "निवेश": 120726, "फेक्ट": 92307, "<unused4638>": 260540, "▁воду": 108437, "▁tendances": 227905, "岨": 255861, "▁busier": 191816, "েমস": 185610, "煉": 244361, "▁Chatt": 95245, "ފ": 241095, "污": 240279, "lamb": 108827, "▁Prejudice": 233276, "▁природе": 202171, "▁VIII": 35880, "敖": 245591, "テル": 56460, "ِمض": 219838, "▁οπο": 47588, "Abstract": 11008, "▁Jacobsen": 220914, "Lit": 105689, "nyt": 99074, "▁Foss": 175378, "hower": 91753, "▁Calab": 106579, "▁pacote": 234877, "Normalize": 144050, "reate": 4486, "▁//<": 160964, "▁hôm": 36074, "▁महाराज": 59911, "<unused4945>": 260847, "vals": 27172, "ivă": 160644, "▁encontró": 132426, "lais": 42350, "▁qq": 203089, "▁Rou": 27230, "▁MPL": 120473, "▁graduated": 25304, "紅白": 121761, "▁निवार": 194237, "▁COMPARE": 225146, "▁squid": 103939, "▁clichés": 203400, "▁checkbox": 71111, "бре": 46454, "امت": 63547, "วัฒ": 195520, "ిత": 18401, "ую": 82096, "orz": 102471, "▁🙌": 219153, "టీఎం": 214672, "痈": 250361, "▁Pantry": 201685, "ოგ": 144210, "▁구현": 120945, "Gal": 28118, ",\\\"": 84252, "▁maail": 125682, "ங்களிலிருந்து": 217695, "辦法": 129017, "▁पॉलिट": 123567, "▁Intersection": 125545, "▁derail": 128549, "▁tarefa": 193051, "▁tercera": 84783, "▁inaccurate": 69224, "▁partnering": 69757, "並且": 116256, "HEADER": 73125, "▁milliard": 221427, "▁rendement": 153102, "манда": 153433, "▁oth": 173168, "betrieb": 83173, "ளவில்": 108514, "นั้น": 44347, "FormComponent": 143890, "▁الاول": 22845, "▁Burgundy": 146295, "álních": 174301, "▁sehr": 18764, "▁militares": 100013, "▁Gospels": 167264, "▁सा": 1866, "hci": 84748, "▁neigh": 5887, "EMENTS": 80255, "▁Marquess": 160230, "▁pula": 85889, "otyping": 74670, "▁boar": 138538, "անք": 198649, "Созда": 149493, "𒁧": 252904, "▁поддержа": 138601, "쪽에": 152759, "▁etmiş": 182928, "RAIT": 222876, "▁puissiez": 162567, "▁marginally": 101196, "▁কামাল": 150171, "▁父": 217821, "forgettable": 56275, "emaker": 57230, "nta": 100940, "▁continuation": 40591, "▁第二": 103912, "Thumbs": 192042, "▁值": 160697, "▁VERY": 76001, "▁الوط": 53314, "▁쓰고": 221288, "▁operates": 22747, "▁costituito": 222293, "низу": 214746, "▁bureaux": 198149, "▁cobran": 190690, "IES": 11490, "Trajectory": 156686, "議員": 136199, "▁debug": 15862, "▁benefiting": 94431, "oliv": 230272, "▁nozzles": 106788, "voice": 22289, "▁downed": 171466, "óst": 40455, "▁單": 229290, "▁nacionales": 101456, "emies": 19200, "建成": 164744, "▁}{}_{\\": 222456, "会長": 160880, "▁нагре": 125400, "ございました": 89246, "<unused5410>": 261312, "▁יד": 217400, "▁conducive": 81823, "▁/**@": 87862, "▁業務用": 165156, "▁catalogs": 112007, "▁Indicators": 111355, "▁tournament": 18006, "▁Zi": 77266, "▁উঠ": 15652, "▁Conditional": 140007, "<unused5603>": 261505, "实体": 121319, "大海": 195758, "▁ocorre": 136970, "假的": 234299, "هد": 22689, "лера": 173095, "▁осигура": 199555, "▁غلط": 83985, "Hugo": 182482, "▁Visibility": 145481, "▁হইল": 28759, "▁pembuatan": 152823, "▁brightly": 81994, "▁Kiv": 196427, "▁bri": 57224, "<unused4679>": 260581, "▁Olympia": 116463, "𒆕": 249321, "哂": 249706, "▁novos": 77313, "<0xB1>": 415, "▁või": 57124, "ζο": 232088, "▁kjent": 214003, "<unused4100>": 260002, "▁كذلك": 155533, "íe": 196870, "▁Bast": 54706, "▁grundsätzlich": 174382, "▁नवीन": 58926, "▁conditionally": 121894, "ၾ": 252683, "▁décision": 73924, "▁egensk": 236343, "▁ople": 103967, "▁গ্রহ": 24823, "▁এখন": 11530, "Zs": 136099, "𒆨": 252980, "<unused3470>": 259372, "ισμό": 176090, "mineral": 128257, "={$": 155799, "▁distracting": 118083, "▁सुनील": 70613, "▁Chiu": 235254, "immersive": 180036, "▁компози": 96090, "멋": 243256, "▁housekeeping": 90629, "MONTH": 76105, "AAAA": 34754, "▁Mr": 3186, "itability": 150012, "▁pedibusque": 165371, "naie": 186383, "bari": 224595, "eteer": 97142, "▁Engaging": 203926, "▁प्लेस": 113547, "▁sạn": 155498, "Fols": 233359, "▁Inland": 120402, "▁aprire": 221780, "▁Vort": 122320, "▁Irons": 191848, "นี่": 113860, "▁rares": 115744, "▁தேர்தலில்": 178657, "▁mishaps": 220624, "▁ప్రత్య": 103386, "alias": 32916, "濵": 255380, "▁சிற்ப": 150518, ":\":": 132085, "▁తరు": 116815, "峰": 239963, "ക്കിയത്": 205421, "ücke": 65196, "▁നടത്തി": 172338, "▁ущер": 229131, "▁Украї": 27030, "▁মর": 55994, "▁Sarasota": 162217, "▁кры": 63213, "▁SizedBox": 55823, "טורק": 130389, "CLK": 55746, "▁юни": 227544, "▁subset": 17503, "▁!$": 157796, "▁atrocious": 220437, "ifed": 202515, "▁primi": 77491, "▁venuedata": 220245, "▁тради": 57798, "wy": 16241, "Implement": 78109, "▁Injection": 89782, "▁alm": 89609, "Blog": 30320, "▁bowels": 143805, "▁আমেরিকান": 113238, "▁ngọt": 157756, "々と": 131658, "拨款": 178959, "ー": 236976, "▁数字": 196653, "▁verantwortlich": 158777, "孟": 241916, "▁निचे": 197220, "▁Toro": 106657, "▁sedikit": 67534, "尌": 251897, "班": 239359, "▁Authentic": 142983, "Ł": 240237, "czyny": 228882, "▁ड्रीम": 235258, "▁Kali": 67576, "፫": 249165, "<unused33>": 39, "ধা": 25054, "Mah": 34448, "ugd": 220466, "<%": 97299, "▁multis": 93733, "▁Bên": 145574, "Scopes": 234273, "▁উচ্ছ": 181268, "andaag": 69417, "▁조금": 73610, "myItem": 91480, "Arc": 31861, "▁tips": 11221, "▁supervisor": 26409, "dokument": 199542, "▁جناب": 193727, "ყვ": 135016, "▁кине": 197103, "▁Karak": 165813, "জিট": 209430, "▁wheeled": 146510, "Ivan": 113486, "ITION": 21613, "车载": 217923, "▁вес": 117655, "🈶": 254596, "▁exager": 208618, "Menus": 128009, "▁밑": 116159, "▁objectMapper": 189909, "䢌": 253606, "теро": 199498, "▁sida": 129773, "▁সহিংস": 104501, "▁bij": 12663, "▁bas": 2280, "▁categoría": 67284, "స్ట్రీ": 231052, "▁suffix": 42636, "ickou": 142619, "！": 237354, "▁ब्रो": 167425, "itale": 204396, "subreddit": 230725, "▁项": 201279, "▁Sakai": 194218, "器的": 67411, "▁गिरा": 107430, "kup": 191467, "▁Restoration": 80403, "▁আনোয়ার": 200216, "▁कप्तान": 72482, "নিম": 112765, "▁şimdi": 121889, "renderCamera": 206924, "▁হোটেলে": 223495, "▁Seriously": 96612, "▁शत्रु": 225177, "涘": 255363, "దయ": 161252, "క్‌": 67910, "▁ankle": 40900, "▁나머지": 224972, "▁समन्वय": 160060, "超市": 166118, ")]:": 54275, "<unused3864>": 259766, "▁חיצוני": 225397, "▁reng": 96059, "记得": 82512, "일부터": 195948, "▁Naruto": 96829, "▁спект": 138172, "▁Chavan": 205115, "<unused4756>": 260658, "▁baños": 175887, "<unused2786>": 258688, "▁clon": 154277, "": 244483, "▁Suf": 146841, "海水": 203340, "အရေ": 164804, "▁headband": 108102, "▁பெரிய": 43170, "抜け": 170296, "њу": 109422, "▁Yield": 71509, "validate": 21318, "▁natürlichen": 216300, "▁Excell": 23914, "க்கொண்டு": 161562, "ຈະ": 73563, "InvalidArgument": 161165, "রম": 26744, "▁Dapat": 203543, "▁मिथुन": 167606, "▁sweetened": 181249, "▁গিয়েছে": 74233, "▁Tianjin": 198161, "▁मोहन": 100841, "))}": 91817, "▁ગ્ર": 153714, "▁whim": 127748, "_{{\\": 184668, "▁పిల్ల": 173237, "мого": 61195, "▁Aplikasi": 202349, "▁Raff": 76745, "omonas": 70035, "JX": 236292, "otechnical": 132168, "▁वर्कशीट": 105627, "▁bisque": 230383, "▁tuvieron": 111448, "рифмети": 172851, "₂)": 168907, "让我们": 93299, "▁Secretaries": 178869, "▁celebs": 169037, "daction": 186653, "ково": 65345, "▁Spirit": 18260, "securitycenter": 28362, "Manchester": 74246, "columnIndex": 165074, "▁porém": 97942, "炮": 241268, "▁создает": 203391, "▁assaults": 104356, "▁Де": 35242, "▁kuru": 218635, "アイドル": 219140, "▁reuni": 112326, "▁nörd": 192050, "▁armature": 73183, "▁dual": 14413, "▁Servo": 159043, "ভুক্ত": 71429, "desi": 136516, "(\"/{": 152762, "▁seasoning": 90927, "▁omit": 68442, "▁去": 129134, "▁Solana": 200986, "エー": 217412, "▁Fresnel": 169080, "▁tilting": 141353, "▁Vincenzo": 164424, "▁திருக்கோ": 187472, "ظم": 38501, "▁situação": 85098, "▁Tets": 232967, "▁ακ": 82604, "▁toile": 50310, "apal": 115698, "▁вол": 66758, "▁viagra": 49500, "▁Delhi": 18390, "AGC": 187823, "Ю": 238960, "▁सोसायटी": 164731, "▁ஸ்ரீ": 66921, "▁stables": 124854, "ిల్లా": 113918, "▁भुगतान": 40649, "▁ദിവസം": 136352, "▁platos": 140533, "▁করোনার": 130967, "▁extensively": 32641, "▁निर": 56774, "▁sunshine": 37863, "▁nodeList": 135140, "sterling": 181736, "男朋友": 228892, "▁ಹುಡು": 216005, "<unused4629>": 260531, "icata": 120895, "බැ": 233383, "webstore": 73521, "▁Ultimate": 44655, "▁Analog": 76268, "▁ಪುಟ": 221834, "ulu": 13511, "Michael": 29518, "business": 23019, "Nomin": 187871, "▁हर": 9448, "▁objetivos": 54775, "▁zw": 18484, "▁problem": 2608, "circled": 73838, "▁kudu": 193269, "CREATED": 140575, "পান": 161310, "▁Pond": 60972, "Dp": 153238, "▁necks": 132193, "▁પસંદ": 131245, "೦": 242526, "cote": 131499, "ຯ": 252008, "▁ಅರ್": 80042, "そらく": 197887, "▁pareja": 68556, "▁cargas": 145797, "ırd": 126766, "▁vulner": 14613, "plicate": 18200, "▁GRAD": 172795, "৪৩": 138839, "▁нь": 57816, "▁স্বয়ং": 183398, "▁წარ": 116321, "vorsch": 124831, "▁Crypt": 55510, "раста": 152244, "வதில்": 161780, "▁Solids": 86755, "▁బొ": 230001, "hältnis": 130785, "<unused840>": 256742, "▁Flats": 153089, "▁memasuki": 167939, "deriv": 161446, "▁suspensión": 164427, "▁penalties": 34211, "▁yarns": 154815, "𒃽": 250448, "あら": 142455, "ivasena": 129340, "pOt": 168081, "▁подписа": 105232, "▁Бала": 181482, "▁возрасте": 129666, "▁microorganisms": 59316, "▁tai": 28609, "▁iniziare": 185888, "Д": 237304, "彈": 241804, "▁witch": 44266, "▁kaha": 167328, "▁Wohnung": 115116, ":": 236787, "▁ed": 1511, "▁NodeRef": 151826, "籟": 252612, "▁कसो": 193902, "▁Duy": 125522, "タリー": 186912, "ipient": 54307, "getLength": 202391, "▁func": 6051, "▁bağlan": 190421, "Ρ": 240032, "▁उल": 126448, "▁explot": 107476, "ଳ": 242157, "▁سوال": 77008, "▁Haskell": 179511, "注意事项": 225995, "ernsey": 126977, "▁फाइ": 48517, "▁unimaginable": 150298, "缈": 247316, "▁tomorrow": 16922, "▁ఆలో": 179489, "部分は": 218266, "LETTER": 153928, "▁Staats": 79189, "▁HAM": 88007, "ORICAL": 207649, "▁safer": 34303, "▁diversas": 50442, "▁vozila": 190746, "▁Brands": 63983, "▁Receiving": 171056, "Common": 19892, "▁véh": 65460, "=\"${": 28199, "▁Noël": 115854, "SetValue": 158292, "خم": 122226, "WAYS": 73533, "▁cx": 52457, "▁jig": 100189, "▁emotional": 13690, "▁നേരി": 150181, "▁chatter": 126244, "ར": 240451, "ほしい": 105840, "영": 238407, "▁pois": 41396, "▁antigens": 73109, "フィ": 17450, "⇑": 245878, "▁какая": 115349, "▁containers": 24032, "oconvex": 225561, "inscription": 195453, "▁secrétaire": 188916, "सीसी": 61556, "▁inserting": 51828, "<unused1642>": 257544, "<unused5782>": 261684, "км": 164924, "婢": 246473, "Small": 24497, "beb": 167821, "records": 53247, "Him": 142437, "▁Lhasa": 220261, "▁imputed": 183429, "\\\":\\\"": 97563, "▁transformers": 39687, "▁Punto": 212866, "▁cabinets": 45204, "ìn": 40178, "éristique": 170805, "<unused4340>": 260242, "Ć": 242137, "ként": 73664, "▁situa": 84455, "▁Sham": 68152, "<unused4069>": 259971, "疯狂": 139300, "▁با": 4692, "Tá": 184937, "їв": 67663, "▁litoral": 206899, "一度": 61689, "module": 7498, "▁ČR": 226864, "utsche": 104199, "▁camisetas": 217211, "▁Commerce": 26830, "▁ARIMA": 213221, "▁erken": 218259, "▁распростран": 123161, "▁dictators": 214740, "▁attracted": 28105, "▁showers": 52098, "lde": 77520, "▁zast": 48657, "▁coordinación": 167609, "يده": 73818, "▁Privacy": 24528, "🎀": 244631, "QueueRoot": 193735, "▁защи": 33150, "▁tár": 220028, "▁optimism": 60330, "最好": 62566, "▁منط": 53413, "𝘂": 247178, "ذكر": 72167, "ljena": 206719, "頻道": 218377, "▁PRODU": 177935, "▁accelerometer": 110841, "ocam": 131195, "转化为": 165604, "गात": 85677, "▁dico": 174997, "▁actin": 48462, "▁Oggi": 124750, "क्रोस": 197171, "ẞ": 240589, "▁MOV": 107178, "attering": 45791, "▁EDU": 231899, "φυ": 137468, "Av": 7670, "▁fire": 4304, "IfNeeded": 180467, "gras": 144201, "<unused437>": 256339, "▁anzu": 209819, "▁novi": 138644, "▁ഒഴിവാ": 221250, "▁circuits": 25332, "GetParaPkg": 173738, "▁suman": 215444, "𒅜": 250489, "おります": 39814, "<unused1058>": 256960, "▁ladders": 108503, "▁Lec": 95348, "Từ": 110052, "▁পারবে": 47439, "▁सर्विसेज": 167128, "▁मुस्लिम": 57791, "▁lager": 111113, "astal": 69695, "URANCE": 95299, "<unused6076>": 261978, "▁Aks": 115428, "XMLHttpRequest": 223102, "Ш": 238160, "CEA": 131625, "<unused482>": 256384, "यिक": 181107, "▁diplomatic": 47379, "▁commitments": 41716, "▁ego": 38405, "▁xay": 230043, "​​": 11549, "Records": 52359, "▁Bens": 187842, "▁Liaison": 99784, "▁注": 111187, "▁Antoine": 84518, "▁arthrop": 161925, "▁después": 19463, "▁흰": 228252, "▁på": 6504, "願意": 204771, "砟": 252790, "▁բ": 73956, "मती": 64081, "Discard": 179633, "▁सिंगिंग": 174179, "▁টাইগার": 191464, "▁Así": 40838, "மிய": 185183, "धारणा": 62508, "▁Kim": 13134, "▁forme": 20957, "packageName": 75854, "UpDown": 153990, "▁metu": 133258, "▁نز": 124022, "diox": 182593, "▁বিশ্বকাপের": 215225, "事務": 63143, "▁دى": 73616, "▁بعد": 12876, "ba": 3604, "▁Dimension": 58906, "resc": 71982, "至": 238070, "▁randomized": 59515, "▁भएको": 78809, "ాగ": 51702, "▁misleading": 49028, "henol": 149431, "átu": 181926, "Divide": 125449, "ASGI": 221745, "finding": 55221, "▁fowl": 193873, "▁rende": 101146, "眼神": 101252, "▁nay": 16873, "▁QUAD": 172657, "▁Wade": 57059, "otten": 122305, "ối": 11183, "▁watercolour": 167404, "▁FEST": 188144, "appliquer": 142005, "▁Warnings": 206392, "नियां": 191121, "▁contestant": 97250, "▁सकी": 104157, "▁ales": 110884, "<unused5676>": 261578, "uchar": 37512, "▁चरम": 173077, "▁зри": 105195, "▁perdido": 108376, "bic": 43566, "▁clientId": 148993, "▁صد": 73930, "▁vybaven": 217470, "▁stamping": 122674, "▁plumb": 182273, "▁şöyle": 121422, "▁संघ": 22538, "ליך": 193387, "robust": 180630, "fullscreen": 90708, "深い": 146546, "pere": 175538, "cv": 16205, "ώρα": 85499, "checkkatore": 198456, "밧": 250289, "▁danni": 183780, "▁coû": 50764, "▁modific": 45374, "hexagon": 105478, "▁सर्वप्रथम": 153710, "▁combinatorial": 99777, "▁ließ": 146124, "▁prieš": 187117, "เข้าไป": 182022, "▁என்": 67978, "½": 238612, "ᓂ": 245177, "oda": 9681, "▁sao": 28844, "▁মন্ত্রণালয়ের": 122495, "▁Cosm": 84652, "▁विधवा": 208984, "▁城": 229632, "▁sorrows": 179452, "ảo": 17157, "▁BIRTH": 191258, "agré": 211396, "бое": 224210, "enação": 197173, "utako": 175753, "ছের": 201489, "▁alors": 22311, "▁Dang": 104172, "▁oran": 111833, "crate": 51691, "▁প্রবাহ": 110161, "ندر": 98112, "𒁟": 250667, "▁thêm": 37513, "▁scient": 6709, "▁अवसर": 34380, "Orc": 158542, "yp": 1775, "Ǻ": 251014, "शाह": 105439, "rahm": 214649, "▁teste": 64787, "▁ব্রাজ": 133308, "十五章": 164109, "Highly": 129802, "▁хода": 184155, "蜜": 240989, "": 247052, "uslararası": 188408, "NIC": 114848, "▁ఆహ": 151266, "▁складі": 172820, "polarity": 235710, "이며": 87726, "▁servlet": 120351, "timestep": 114652, "▁lighted": 100749, "▁মতোই": 177126, "rounds": 115457, "▁Existen": 187257, "рье": 167897, "▁சினிமா": 149578, "<unused2731>": 258633, "▁दिखाई": 32254, "ceti": 150025, "▁denaro": 212576, "ສົ": 83538, "內容": 68485, "rare": 43128, "ويب": 226515, "▁വിശദ": 175532, "沤": 252778, "तीने": 96578, "▁Padre": 92341, "メル": 99853, "▁funkcjon": 186229, "▁الأح": 102170, "oter": 13845, "▁esto": 16030, "▁अट": 75078, "▁అలా": 86291, "ધું": 186358, "▁alej": 160043, "▁অনুয": 39213, "▁pissed": 127436, "▁Rak": 51400, "▁xiv": 199231, "GetChar": 185382, "كب": 99912, "▁rejoined": 210594, "Primitive": 93672, "dummy": 49152, "▁estudio": 32714, "▁പ": 4386, "Yvette": 209162, "▁Recording": 78646, "▁condom": 127576, "▁Stump": 179989, "Neder": 221559, "▁ligera": 207595, "সিডেন্ট": 36861, "лини": 162702, "味料": 204395, "▁retrieved": 52236, "▁Imm": 26228, "▁Vibrant": 167132, "▁bourbon": 111984, "▁ogranic": 164187, "ندس": 127773, "<unused867>": 256769, "▁ઉત્પ": 136880, "Chel": 85218, "▁Bij": 55639, "Це": 77801, "▁थाना": 39204, "▁movable": 79305, "▁मनात": 224747, "▁روا": 119349, "▁ecu": 34062, "ussion": 63641, "Technische": 205225, "▁olefins": 189761, "unders": 71264, "▁shrink": 35426, "▁травня": 129955, "kong": 67462, "夸": 242652, "▁Kathleen": 78768, "DownLatch": 197745, "อัล": 220190, "<unused615>": 256517, "设计师": 148094, "acl": 69582, "ႃ": 242173, "上げて": 164524, "irão": 194944, "🐍": 248972, "र्श": 49986, "▁దర్శ": 98755, "孤": 241073, "ALI": 51700, "▁温度": 188148, "\"][\"": 35384, "▁cozy": 37066, "ЕН": 64316, "▁primarySwatch": 205259, "▁Cite": 73863, "▁übernommen": 188018, "▁préf": 58839, "▁beso": 63592, "▁फोटोशूट": 169362, "を実施": 125839, "▁SRP": 21024, "▁vhod": 114017, "▁文件": 88782, "ⵅ": 253722, "ungsk": 134711, "inios": 203079, "ဝ်": 161185, "▁inherits": 134209, "indexed": 114473, "iophene": 186521, "▁प्लेलिस्ट": 137352, "▁mismatched": 216791, "ETC": 199450, "▁Caputo": 205830, "▁wygl": 94406, "デュー": 202856, "￢": 254059, "足够": 81244, "اندا": 151725, "▁தேர்": 158733, "▁Lizard": 154422, "▁bair": 217710, "▁shredded": 96951, "珢": 251002, "▁Yoo": 145551, "ხვევ": 187253, "сшта": 86937, "odt": 223067, "▁Comerc": 105252, "▁decoración": 100280, "ところ": 34012, "▁facilitator": 112140, "▁Expertise": 145655, "▁अमेरिका": 40701, "FlashValue": 136796, "pter": 165230, "Deja": 28779, "▁coales": 88494, "怜": 243070, "CLOSED": 94870, "▁Days": 27613, "▁impatiently": 227812, "▁그림": 84872, "тоў": 114900, "▁architects": 45168, "HAS": 90016, "▁breakpoints": 171819, "퀘": 244403, "strncpy": 128421, "頎": 254293, "െടുത്ത": 214930, "▁ublox": 232002, "▁وظ": 135667, "座椅": 184636, "▁orci": 198197, "<unused1390>": 257292, "▁tee": 32088, "▁回転": 163214, "▁fed": 18988, "pret": 26583, "価": 238927, "▁creed": 119315, "▁Fully": 64382, "Url": 6964, "극한": 165320, "▁Minggu": 116766, "▁gemidd": 218053, "oglycos": 165680, "𝖾": 250719, "arin": 19272, "急性": 215330, "▁BAH": 190938, "▁pigment": 38161, "nętr": 69485, "しましょう": 94683, "seekBar": 224955, "vertrag": 135123, "ອກ": 86466, "▁sard": 76753, "▁Clicking": 187597, "▁окру": 37817, "▁ప్రా": 56439, "▁asegur": 42789, "Rice": 108239, "▁downregulation": 236033, "▁Eureka": 92187, "ployed": 32342, "hacking": 232793, "ymethyl": 64721, "ଏ": 241608, "▁Kapit": 201206, "ignan": 127028, "▁ರೂ": 85507, "UMS": 217397, "▁ผ้า": 166968, "▁yab": 151185, "coproteins": 193395, "▁;;": 104398, "▁पढ़ने": 172320, "▁Europeans": 67358, "味噌": 203858, "cursor": 14423, "ినా": 94958, "connecting": 139516, "𒄴": 247361, "NewUrlParser": 102041, "▁vigil": 39676, "▁wicht": 64396, "▁دفاع": 92072, "مول": 65858, "▁personalisation": 177945, "rane": 194746, "▁rainbow": 30591, "<unused3747>": 259649, "▁dibangun": 169949, "হল": 102459, "Nếu": 87499, "▁pixel": 22308, "высо": 192710, "▁poquito": 108280, "າຍ": 48106, "▁proced": 5076, "▁navigated": 183256, "▁ornamental": 51499, "▁amplia": 82294, "<unused5554>": 261456, "يلة": 56911, "▁luft": 97289, "batross": 173571, "▁핸": 214208, "<unused6146>": 262048, "讃": 247355, "▁Twisted": 186839, "贝": 240251, "<unused4416>": 260318, "▁kk": 146695, "▁haird": 76196, "▁ويل": 216031, "▁Logistics": 74812, "▁controllable": 124957, "》《": 106464, "umuz": 84571, "▁THE": 4455, "侣": 242892, "frequencies": 229094, "▁juncture": 150164, "▁Medi": 70201, "▁کوچ": 102611, "වා": 39546, "<unused5750>": 261652, "uniformly": 229273, "▁fama": 131603, "▁FOLLOWING": 228404, "ዲስ": 180779, "<unused6196>": 262098, "▁অপরদিকে": 229932, "profiss": 162653, "▁paperwork": 48365, "рона": 163581, "▁ветер": 225500, "▁Levit": 155635, "SDAY": 200991, "▁exploration": 22824, "▁જેવા": 223168, "zew": 52395, "েন্ট": 12733, "▁صدا": 143029, "▁whack": 206465, "iffen": 130013, "▁punto": 19196, "чается": 216625, "embra": 149803, "jek": 24738, "Reusable": 192891, "▁+,": 77673, "▁তখনই": 116893, "▁▼": 55820, "vär": 116755, "▁Candles": 201859, "FirstOrDefault": 82147, "▁Examin": 59175, "▁anterior": 17896, "▁மஞ்ச": 159556, "▁удалось": 104016, "▁Updated": 42841, "जीलैंड": 106191, "лимпи": 88314, "▁μαγγ": 231555, "делить": 103305, "𝗗": 250996, "▁glyphicon": 96256, "没了": 209298, "▁đào": 124160, "喏": 250894, "▁convierten": 219549, "▁Función": 227650, "▁Mereka": 86619, "▁Sams": 110184, "ंबा": 63878, "的总": 199760, "▁Blockly": 94669, "گیز": 181089, "মানে": 39985, "▁bertanya": 170130, "Pennsylvania": 147307, "ወስ": 184451, "▁łyż": 206846, "NIS": 176007, "ler": 1898, "▁cuire": 232639, "▁hydrate": 102389, "▁წ": 30749, "emn": 212451, "catalog": 44095, "▁Return": 9657, "▁ياس": 165911, "▁nous": 7653, "▁zdoby": 129262, "<unused392>": 256294, "され": 6394, "▁करवाया": 100298, "▁પાસે": 90386, "▁Racer": 206721, "▁Apartments": 77671, "▁Remove": 22221, "ugia": 139990, "▁विकलांग": 167961, "▁corona": 40950, "భర": 189150, "看的": 142210, "▁stead": 29227, "▁처": 42589, "▁desl": 231234, "ान्स": 208610, "iros": 26525, "<unused5096>": 260998, "▁privatisation": 211679, "▁salón": 119778, "dys": 145701, "▁lapar": 121214, "▁reds": 155771, "Ϥ": 248948, "▁horticultural": 175473, "ijke": 34283, "▁hyperglycemia": 218579, "▁darbo": 233363, "▁السف": 170607, "▁layoffs": 136248, "▁ভালোবাসা": 165496, "▁organism": 32544, "▁HDPE": 223461, "ضيع": 206215, "qualification": 196542, "हाँ": 18836, "▁Quant": 15864, "▁ОК": 210880, "▁sám": 216334, "▁Mt": 38209, "▁особливо": 199814, "Scripts": 32295, "▁ரயில்": 104330, "üste": 169149, "ん": 237249, "▁vocal": 28857, "న్స్‌": 207591, "られない": 108971, "▁mają": 67306, "ದ್ದು": 229777, "▁conta": 36465, "▁সংসদ": 68037, "▁secretário": 221850, "▁metamorphic": 181338, "izam": 84788, "▁pared": 47690, "▁repaso": 178140, "▁max": 2631, "пова": 195309, "ства": 7249, "ర్రీ": 148393, "▁universe": 17748, "▁Shelly": 172275, "▁Frobenius": 145911, "noduch": 122136, "பா": 22928, "▁peint": 147171, "车站": 160637, "臆": 246721, "хими": 121261, "▁idiots": 135174, "▁регули": 82260, "▁راہ": 101675, "<unused1385>": 257287, "▁Hye": 159125, "ུང་": 232183, "缽": 252331, "▁omitting": 151909, "▁EGFR": 196291, "▁unnecessarily": 102009, "<unused2980>": 258882, "▁holding": 7046, "▁MDA": 141038, "mes": 4404, "▁desert": 19227, "▁महानगर": 141685, "▁அற்புத": 107622, "▁ただ": 217893, "▁heft": 123526, "▁kadang": 185618, "▁milioni": 95225, "ప్రత్య": 212108, "翛": 255225, "糰": 247215, "▁treb": 110490, "▁DRIVE": 133173, "indul": 166910, "backup": 56013, "相对于": 211624, "▁entfernen": 169204, "▁conferences": 36295, "▁Quran": 104566, "▁минимум": 144198, "ूटूथ": 204895, "监理": 195578, "▁Zuge": 209900, "imsy": 154982, "okon": 117246, "こちらは": 149261, "Unt": 23450, "▁autism": 53306, "▁rattled": 209648, "▁Boh": 49439, "▁Replace": 44635, "memcpy": 91348, "▁кода": 140672, "▁puoi": 97384, "▁aussi": 13097, "▁\"__": 29802, "▁అ": 5613, "▁universitario": 209403, "cheat": 60936, "▁लेक्चर": 50062, "▁magnitude": 14889, "쏘": 244885, "▁westbound": 232604, "▁kèm": 132362, "---->": 64746, "▁लिहाजा": 207457, "гө": 173718, "Migrations": 110752, "▁track": 4087, "teil": 33967, "jsoup": 207952, "▁extend": 12975, "▁muddy": 75946, "▁ন্যায়": 54195, "▁handing": 72021, "秩": 242984, "గి": 40226, "鎮": 241746, "▁biometric": 115175, "▁यामध्ये": 181374, "onset": 151155, "▁impos": 55450, "spiration": 64521, "iging": 82784, "进行了": 73951, "বিজ": 168698, "cup": 8144, "▁imedi": 229239, "<unused2179>": 258081, "▁venc": 106341, "moder": 153175, "▁Diese": 34683, "rizona": 19160, "▁tendencia": 95684, "ල": 237951, "▁responsabilità": 166563, "▁triệu": 57516, "縄": 241345, "🚨": 243847, "有序": 192894, "㐫": 252513, "żli": 185086, "けれ": 74097, "▁পৌঁ": 49410, "▁Brow": 64132, "em": 581, "imbus": 82296, "Cheerful": 130709, "▁financiers": 125352, "eaa": 197216, "▁ஓடுப": 194657, "▁Redemption": 120998, "▁tup": 131423, "፦": 251689, "▁ভালবাস": 106953, "izoen": 140479, "▁hablar": 33894, "ghis": 235436, "💄": 246782, "茥": 255785, "굉장": 211161, "ვის": 39241, "▁ciek": 160089, "Jeremy": 122736, "▁inserted": 23665, "bonded": 182259, "昭": 240405, "▁fif": 9408, "▁Anf": 164238, "டிப்ப": 43428, "ктери": 102385, "当我们": 217188, "膚": 241576, "▁informieren": 194652, "▁zacz": 103097, "▁शास्त्रों": 222659, "▁माहित": 46675, "assie": 147868, "▁sprawling": 104885, "愛的": 169205, "ัฐ": 157204, "ड्रा": 235219, "▁decreed": 169712, "▁gunakan": 134101, "比利": 233763, "ubon": 166220, "डीए": 118693, "чной": 28363, "ｆ": 244912, "брать": 50626, "▁budete": 177361, "▁নত": 231004, "bung": 51554, "íce": 220579, "rootDir": 155733, "ഽ": 250080, "</caption>": 177, "▁شی": 48880, "▁दिग्विजय": 191542, "celikle": 113931, "achel": 25176, "<unused4041>": 259943, "▁soldiers": 18187, "<unused2364>": 258266, "▁NOC": 224562, "incible": 102281, "ーん": 234910, "▁offenbar": 232179, "तृ": 196910, "▁carrier": 15903, "pagen": 130534, "המ": 212397, "▁aşağıdaki": 187589, "▁couch": 29919, "▁Enterprise": 31503, "வருக்கும்": 127968, "▁cardiop": 209027, "▁ಮಹಿ": 223861, "gesture": 163673, "sous": 166401, "▁гер": 90705, "做到": 77120, "perturbative": 209611, "เปอร์": 235045, "▁coronavirus": 16537, "▁-\\": 24349, "▁infl": 3311, "▁servidor": 68689, "▁कुल": 27136, "看出": 108382, "രു": 10322, "▁subdued": 102057, "designer": 88167, "▁virtuel": 199224, "गिन": 178589, "▁PROVIDED": 84442, "▁panier": 122257, "▁ALJ": 226428, "▁formatter": 78595, "▁চক্ষু": 99249, "▁sicuro": 148896, "▁થશે": 162140, "▁announce": 26155, "ણમાં": 220405, "𒆝": 252977, "िरिक्स": 172898, "▁negroes": 191656, "髡": 250994, "commitment": 205119, "▁supernatural": 65940, "▁dungeons": 179251, "▁поступа": 129613, "▁কারখানা": 189322, "▁offre": 39663, "▁falta": 35373, "ovu": 100923, "BPACK": 65513, "▁برش": 197019, "▁Maguire": 138790, "▁solic": 25382, "ție": 40384, "▁sabotage": 124003, "డిన": 91273, "पूर्ण": 13860, "▁پوس": 232962, "▁relational": 78019, "▁라": 62106, "Так": 55612, "▁ū": 200840, "▁annih": 57986, "▁robbed": 83946, "▁पृष्ठ": 68764, "▁voltak": 159459, "Gauge": 102981, "Shows": 85862, "▁jacket": 16621, "ítani": 169428, "▁affected": 9034, "▁Thoroughbred": 175386, "alk": 1574, "▁Carrie": 78964, "▁Jakob": 104006, "▁kater": 210340, "▁বিগত": 171267, "▁acacia": 214901, "क्लेव": 191418, "板块": 177677, "▁আলে": 230799, "testimonial": 143925, "शेदपुर": 189505, "噦": 255669, "ුව": 31550, "▁grind": 50432, "ride": 4263, "▁mehr": 13662, "내는": 187335, "投稿": 69225, "▁एकदा": 167269, "ါ": 238733, "▁Mahal": 104084, "ändert": 81289, "▁বোপ": 102381, "ọt": 85634, "▁galvanometer": 192803, "▁поту": 192696, "рито": 29650, "▁hark": 192713, "嘯": 246555, "Tere": 99288, "▁मिक्स": 110024, "▁sessionId": 183659, "遗传": 205809, "▁곧": 161196, "▁Ə": 123083, "▁CryptoJS": 188607, "▁continental": 49566, "已经": 14409, "й": 236934, "మారు": 182749, "apace": 157696, "▁necessaria": 226905, "集合": 56860, "좆": 248087, "▁Spaghetti": 210575, "▁JOURNAL": 132669, "ტ": 237925, "катери": 88388, "evolving": 200421, "δει": 132891, "ญิง": 118153, "хом": 72415, "訊": 240515, "▁कपड़ों": 223897, "Nonce": 200953, "▁risultati": 106999, "<unused3730>": 259632, "单": 237919, "▁פון": 118084, "oxid": 42494, "▁String": 2552, "▁edición": 65403, "したら": 78027, "▁இருந்தது": 58851, "omial": 11016, "ＮＡ": 43232, "ሶች": 228330, "otage": 208368, "における": 45900, "▁tule": 57011, "▁সঞ্জীবনী": 207747, "璺": 255863, "▁BPA": 131519, "▁radic": 180052, "▁म्यूचुअल": 184133, "Pe": 10423, "šć": 155239, "▁MBC": 169943, "૯": 244044, "▁bire": 90341, "|.|.|": 147978, "지도": 145790, "▁अदर": 97732, "glob": 42731, "beding": 85127, "氣": 239471, "▁ट्रायल": 147858, "▁assolutamente": 182989, "pyplot": 34869, "▁samples": 7365, "ScreenBinding": 136924, "▁“[": 92894, "ల్లో": 54093, "▁സൈ": 175183, "🌒": 252440, "▁Surv": 109559, "▁reconciliation": 60544, "▁గ్రామ": 225929, "▁Strauss": 102898, "ellipse": 181819, "▁individuality": 89942, "▁Championships": 41693, "엌": 249666, "urist": 157860, "▁t": 494, "连接": 30572, "<unused4671>": 260573, "▁kurul": 128693, "▁melewati": 225315, "元年": 191785, "▁GCC": 88213, "आरपी": 215186, "カスタ": 94715, "▁SCE": 169636, "▁rappel": 129141, "▁ಬಿಯ": 230736, "▁coasts": 116466, "▁میرا": 109429, "antren": 164111, "▁perspiration": 215698, "▁Ваши": 146758, "▁Đế": 221077, "wein": 115994, "das": 20767, "▁Bonnet": 195036, "▁missiles": 57661, "▁견": 170963, "तीच्या": 201446, "▁अन्त": 117935, "entro": 75809, "لس": 15529, "▁educação": 96535, "smiling": 86294, "▁moun": 142409, "▁создания": 80862, "<unused2138>": 258040, "移動": 44107, "▁энциклопедия": 168386, "淍": 246499, "▁yere": 166669, "▁Survivors": 169355, "moves": 50139, "Carry": 185196, "PosY": 196277, "▁ফর্ম": 122685, "Dyn": 131092, "▁communiquer": 167629, "backgroundColor": 33537, "▁execução": 114496, "essor": 33185, "แจ้ง": 186934, "▁Hub": 19839, "▁Rise": 53474, "▁Donate": 204843, "▁mix": 6921, "解答": 109269, "▁প্রশাসন": 94419, "▁বৈ": 21873, "▁знаете": 119436, "iping": 46581, "▁sentirse": 200932, "▁pubis": 234327, "گیا": 211708, "ulich": 210524, "▁ludicrous": 159330, "▁concatenation": 184448, "MacroExpansion": 186737, "▁animal": 7626, "▁خ": 3268, "▁ലേഖ": 180106, ".\"+\"|": 213807, "HomeController": 151525, "▁เดียว": 103111, "▁значение": 49350, "▁risposta": 109857, "aghan": 93757, "mans": 27776, "▁effectiveness": 20294, "▁cadres": 142559, "▁cidades": 116406, "▁Gauge": 69576, "▁бетон": 209119, "▁الاج": 56902, "▁undirected": 181848, "jskiej": 142315, "Daddy": 155490, "▁Nulla": 179226, "予算": 182315, "⁺": 244643, "▁நிறுவன": 70312, "เปลี่ยนแปลง": 235062, "▁ngồi": 123714, "▁fob": 181110, ">(){": 193605, "▁Behavior": 40242, "▁vrát": 172197, "▁arts": 15653, "▁insidious": 175220, "rine": 13500, "zerű": 157778, "uson": 43210, "suffix": 52202, "▁composer": 45380, "▁гульнявыя": 143183, "▁enjoin": 111962, "だった": 24833, "ۍ": 241045, "************": 19739, "EM": 3158, "希": 238737, "ATES": 33769, "▁poisoning": 63533, "ложении": 164292, "▁रथ": 182397, "▁कोणते": 218124, "日に": 46160, "▁ধরেই": 180096, "стре": 24046, "▁Dominican": 79986, "▁loops": 30692, "Project": 8410, "灵魂": 142445, "▁tribute": 32796, "コツ": 170068, "▁citer": 161883, "▁liebe": 91504, "Jenn": 68555, "▁Observ": 22192, "Beat": 57949, "슛": 248596, "▁Honour": 54631, "▁Tosh": 172160, "▁SIGN": 49456, "iseks": 88670, "▁Piem": 234472, "Postal": 128116, "▁gant": 118139, "簡単": 45631, "▁دیگری": 145088, "وپ": 131732, "ındaki": 54745, "EL": 3387, "的身": 130238, "詢": 242176, "▁كلم": 79375, "▁brass": 28575, "▁Dib": 74515, "‌شده": 114664, "зан": 36030, "屉": 246599, "<unused5119>": 261021, "▁ouvir": 138914, "কৃত": 33494, "ovable": 80248, "▁Waves": 76905, "如果是": 91985, "Tec": 90360, "▁jones": 196356, "▁डन": 170889, "▁دوره": 113200, "▁বন্ধু": 32263, "▁жовт": 110107, "”)": 31516, "▁sufferer": 224861, "VOC": 136598, "<unused5118>": 261020, "ματα": 43924, "ამდე": 189032, "▁suav": 181608, "成员": 64483, "▁휘": 216731, "વાસ": 168104, "▁Stair": 190027, "▁blonde": 38866, "▁sát": 54349, "▁дисци": 158941, "▁interessa": 183325, "สี": 60131, "▁pozit": 187649, "stro": 47712, "▁Opa": 220842, "▁simulation": 16496, "Covid": 70465, "▁tamaño": 43630, "▁défini": 172667, "DATE": 21696, "infrared": 132588, "▁Dessa": 191769, "▁Phoen": 209422, "▁Nar": 25226, "▁REPLACE": 107046, "rš": 61652, "▁stockbild": 208833, "▁контакта": 207945, "▁intégré": 188769, "▁banyak": 22156, "▁clearances": 146490, "Gum": 221532, "▁detach": 121430, "LEFT": 31884, "НК": 142553, "<unused3797>": 259699, "▁Manufacture": 116174, "LocalStorage": 112097, "raintree": 211021, "asını": 137657, "/√": 213817, "▁आय": 11268, "▁থাকে": 15087, "▁sacraments": 228984, "▁disrupts": 191905, "Gil": 81866, "▁Roots": 85454, "τικός": 178252, "▁паз": 209104, "ieres": 46896, "สิ่งที่": 221838, "Vaterpolo": 172668, "事件": 28990, "𒊲": 253063, "വേശ": 211174, "Экс": 220921, "前来": 201597, "▁PayPay": 218856, "Popup": 22853, "<unused1802>": 257704, "assume": 151439, "▁avid": 62724, "▁احتجاج": 160894, "起動": 121438, "▁CHEM": 85649, "▁Active": 23531, "▁Nemat": 227683, "▁större": 177112, "▁Gardener": 173572, "▁तृ": 94540, "カフェ": 97649, "▁Mahmood": 207097, "▁Februar": 74744, "▁negatively": 38500, "飚": 251378, "▁ooit": 187309, "▁AII": 209630, "▁dropped": 14205, "▁ғ": 213582, "<unused367>": 256269, "▁chick": 34950, "▁شركة": 103884, "DICT": 150213, "喰": 245818, "▁dikenal": 98681, "ramient": 38671, "WMNCA": 47757, "잇": 243462, "視頻": 164940, "▁Lage": 67320, "▁airports": 52132, "Michelle": 114394, "▁свидетель": 155684, "atsiya": 228416, "▁Instrument": 18646, "▁boc": 70637, "▁kolej": 78035, "构成": 111495, "▁অধিকারী": 185551, "▁unclean": 196129, "lx": 64405, "minimize": 126201, "▁ফেন": 176547, "▁मझ": 163324, "▁büy": 34013, "▁svim": 164167, "▁silhouettes": 91825, "auce": 161946, "▁단": 29950, "▁Tha": 59196, "GRADE": 164812, "▁Parks": 36962, "wechsel": 99150, "Through": 24452, "▁प्र": 1485, "轼": 246008, "othing": 8165, "▁Adhesive": 202656, "ையை": 24016, "▁Zum": 72820, "▁ក": 90986, "▁ponies": 156315, "坝": 244737, "▁bought": 10636, "▁LaserJet": 140349, "▁հ": 33469, "▁обновления": 150084, "వరకు": 185801, "▁paulo": 116992, "ಂಗ್ರೆ": 167263, "▁Rapp": 64931, "abı": 143849, "нную": 157744, "bedroom": 62929, "▁کی": 2984, "▁यु": 13656, "▁சீ": 46645, "يجي": 194852, "▁बचाव": 84280, "}]$,": 171878, "▁informs": 75125, "動作": 70190, "▁doGet": 177722, "▁NAV": 30362, "▁Miy": 68344, "▁גר": 167924, "<unused2911>": 258813, "rear": 95973, "▁పా": 42244, "ME": 7273, "σον": 186426, "inh": 9022, "▁ليب": 216307, "paint": 33277, "▁autonomia": 183239, "Produ": 30912, "ोक": 43024, "শোর": 50191, "▁agents": 11362, "▁சிகி": 105870, "▁данных": 34762, "Ⴎ": 251908, "▁خش": 201758, "渔": 243479, "▁antennes": 130751, "▁méridionale": 204247, "ayanti": 111781, "၇": 244139, "▁Messina": 184048, "働く": 192658, "رام": 41721, "ினர்": 41506, "전을": 122938, "不过": 26572, "<unused1465>": 257367, "luca": 174983, "▁অন্যত্র": 205316, "henes": 134333, "▁delas": 146563, "鉚": 255544, "▁Manik": 195852, "谧": 248006, "▁जग": 15483, "ரை": 12789, "▁hn": 132599, "▁Bremer": 226037, "SizeMode": 115646, "▁इंड": 14934, "▁fréquentes": 233102, "▁periode": 83592, "aff": 2806, "yarn": 82943, "▁insufficiency": 120642, "▁Rails": 79893, "▁znač": 78161, "Smo": 201503, "▁নিউজ": 108133, "qus": 102640, "▁notorious": 62526, "潁": 253981, "▁emberek": 204505, "▁Internation": 184135, "ὁ": 242147, "specification": 221342, "▁accueille": 221191, "務": 238659, "▁прош": 71479, "▁Nos": 26895, "▁சின்னமாக": 221846, "▁اولمپ": 153436, "の一つ": 120540, "alysis": 226972, "ನೆಯ": 53948, "▁THANK": 168014, "ંતુ": 57879, "<?=": 167788, "াগ": 9518, "Markers": 143120, "籀": 248806, "▁Diner": 184780, "てもら": 205907, "▁aster": 38701, "团体": 166906, "vention": 6378, "魚": 239973, "激发": 204250, "ᕕ": 248377, "大家好": 58725, "rian": 8033, "编译器": 163344, "▁sli": 20771, "ätter": 85002, "ungkinkan": 108394, "高的": 54346, "MaxWidth": 205117, "▁добра": 123668, "▁herzlich": 127557, "されている": 29468, "▁deverá": 134160, "▁skyscraper": 105477, "▁verursacht": 232166, "▁빙": 220726, "▁…..": 177373, "▁उमर": 194723, "Grass": 94045, "<unused5256>": 261158, "▁combustível": 194368, "фото": 139154, "▁Ratch": 217535, "▁Replica": 169983, "Mgr": 131970, "▁ná": 26118, "▁Synergy": 205224, "()=>{": 86432, "▁Руси": 198997, "▁ساخت": 67608, "رفت": 133249, "ilität": 234252, "が付": 159139, "▁Pereira": 84065, "▁etanol": 206814, "▁hurriedly": 127149, "▁valable": 189905, "▁डेली": 85174, "▁HOT": 73377, "店铺": 141224, "▁สะ": 139153, "▁téléphone": 75954, "▁गाँवों": 228763, "кисло": 202925, "長的": 225636, "bigr": 154293, "▁prennent": 150121, "▁겁니다": 179236, "▁nebo": 33312, "▁иностранных": 192165, "работа": 209374, "唯": 240036, "囘": 250323, "▁defective": 40183, "Poll": 61436, "佣": 243818, "▁Nhật": 93348, "▁रवि": 58923, "يل": 8892, "▁forever": 17504, "▁schematic": 50939, "Hs": 94309, "▁Invitational": 132233, "▁unequal": 78212, "discussion": 164667, "たく": 50741, "▁topologically": 181189, "▁Atr": 128967, "foldername": 186863, "owanej": 163723, "▁scrimmage": 213925, "México": 233459, "<0x97>": 389, "▁Kết": 170956, "▁Institutions": 79098, "▁aprox": 210209, "ப்பன்": 203710, "▁Diagnosis": 85860, "omp": 25011, "सवाल": 159298, "வர்கள்": 30769, "Daten": 166435, "▁posizione": 78406, "檔": 240727, "infs": 130577, "buscar": 183677, "させていただきます": 128544, "▁Helpers": 200647, "▁Rishi": 154001, "Pm": 117632, "▁ভোগ্য": 91325, "▁забе": 229254, "▁CC": 10914, "▁StringIO": 159522, "▁biar": 212490, "▁Vk": 69278, "▁trigonometry": 211259, "agama": 213888, "staande": 174302, "acia": 14632, "▁карбо": 236391, "לט": 103816, "▁MCS": 221533, "▁বেরিয়ে": 109281, "IllegalArgument": 223229, "गा": 2409, "zare": 236041, "awar": 76863, "▁અલ": 146188, "▁ISA": 139504, "▁കണ്ണ": 136308, "▁تز": 140703, "توا": 149920, "ியாக": 47063, "▁मिट": 48039, "hammad": 30771, "▁invis": 31031, "hoi": 219070, "க்கே": 110136, "▁দূরের": 200379, "RULES": 235308, "\\\".": 158103, "▁огромное": 168470, "▁auswählen": 179046, "▁connaissance": 80531, "▁آئینے": 211758, "▁evid": 31270, "▁largest": 7488, "▁voltam": 152976, "<unused4653>": 260555, "▁gripe": 167384, "ίκ": 65737, "serverId": 184519, "ភ្": 160070, "▁Sardar": 162999, "▁ഒരു": 23350, "csname": 182134, "▁২০১৭": 106232, "▁passer": 38460, "▁قرض": 218031, "▁Willey": 183939, "▁slto": 225530, "彊": 253277, "▁Nure": 137981, "▁obiettivo": 211924, "▁красоты": 235693, "toMap": 219418, "▁refills": 216958, "町": 239376, "suites": 194469, "▁Shaun": 116587, "▁Isabelle": 128491, "▁ponctué": 62560, "▁wheelchairs": 164366, "▁tabel": 50925, "loos": 209419, "▁talisman": 182536, "▁politician": 48101, "▁պատ": 196253, "▁onun": 84208, "хин": 190598, "▁nanoparticles": 68426, "still": 40016, "heus": 172285, "▁chỗ": 80451, "▁glimmer": 166235, "▁تعاون": 201559, "getSheet": 157387, "▁ors": 171155, "▁उप": 5494, "卧室": 150703, "Idea": 132340, "рог": 210228, "))": 1223, "éro": 23650, "newswire": 168356, "ätzen": 88885, "▁agradable": 145620, "▁được": 7189, "<unused5565>": 261467, "ைகிறது": 202356, "िखर": 92500, "▁Economist": 101086, "Sandra": 172054, "▁чудо": 236564, "knot": 124120, "▁libert": 27549, "▁πλή": 203093, "))\\": 67693, "▁নম্ব": 187638, "த்தான்": 87503, "▁радика": 223947, "▁Hunting": 49012, "▁Sensors": 140812, "cycled": 189375, "▁sympathetic": 53224, "わかり": 108975, "▁vyu": 177189, "▁crept": 154563, "▁ব্রিজ": 152961, "compensation": 215600, "Cab": 86866, "ıları": 172960, "▁Different": 29239, "preis": 87853, "риф": 43130, "လီ": 232410, "▁react": 9434, "纏": 245028, "<unused1338>": 257240, "▁Sparta": 163177, "▁индек": 211742, "▁eliminates": 53595, "cence": 20425, "Pixel": 38096, "▁космо": 137277, "▁superconducting": 63801, "छात्रा": 148806, "ंप": 6098, "▁Mohan": 102972, "▁wand": 30842, "khar": 77331, "▁Pleas": 167508, "小さ": 70303, "▁littérature": 172164, "▁Hermione": 186640, "Bracket": 117737, "▁tatou": 179990, "▁Provident": 184438, "Binary": 33940, "ieniem": 128723, "▁한다는": 221017, "▁تجربه": 143677, "iger": 4802, "▁Alex": 8451, "prescription": 226041, "▁rövid": 228271, "▁important": 2132, "▁reject": 11450, "▁Ipsum": 125108, "▁наве": 146771, "ของเรา": 159715, "▁ejected": 123481, "uole": 145255, "▁coordinates": 15375, "▁Steph": 46445, "ுகிறார்கள்": 204429, "▁ferrite": 206667, "Control": 5144, "দ্ভুত": 97275, "Burg": 111367, "▁amigo": 56931, "▁voluptas": 234179, "Nell": 211426, "▁Pfeiffer": 190893, "History": 16146, "蔻": 246071, "답니다": 154524, "ปรา": 144798, "▁গাড়": 39567, "巅峰": 223768, "▁sélectionner": 205609, "▁-&": 184124, "▁phim": 74837, "▁Wad": 121266, "শাল": 77490, "iliary": 26566, "▁സാധാരണ": 169749, "▁faction": 60897, "<unused3023>": 258925, "▁sailing": 36019, "বিভ": 166668, "▁kog": 119639, "espace": 70694, "<unused5697>": 261599, "▁drains": 73141, "▁automatique": 112445, "<unused3495>": 259397, "▁yun": 156311, "▁வினை": 157557, "懇": 244970, "▁langue": 51010, "▁BOS": 161375, "fileobj": 49686, "▁Paglin": 169046, "<unused4937>": 260839, "▁argentino": 121948, "▁બી": 57092, "Gift": 75384, "rição": 63088, "इस": 10313, "Starburst": 201933, "▁Boost": 54139, "部位": 100323, "レース": 100447, "▁GC": 29013, "sthresh": 224829, "argon": 89178, "的态度": 218561, "▁Vind": 150527, "▁prerequisite": 80324, "▁vécu": 194644, "▁definir": 74887, "详": 239961, "▁BECAUSE": 231974, "▁borrar": 185216, "𒐕": 252836, "epan": 143380, "▁saisi": 159944, "▁иначе": 116809, "▁maak": 110915, "▁လုပ်": 211833, "=\"'$(": 57071, "▁≠": 193600, "ⵣ": 248319, "کھوں": 149987, "▁Inu": 217936, "▁ky": 49125, "続け": 178415, "パン": 24155, "bestos": 59477, "▁맛": 71582, "committees": 223559, "iderm": 161082, "▁pennies": 108876, "chef": 66111, "PLANE": 207226, "▁স্ব": 6180, "Git": 35152, "▁Doing": 56143, "▁خبرگزاری": 227960, "▁VPN": 36768, "subj": 153865, "simo": 203392, "▁intellectually": 141032, "isetas": 173100, "▁ठंडा": 124797, "についての": 144509, "ashima": 145205, "FIC": 166287, "绝对": 58577, "▁সফট": 134307, "တို့": 65495, "▁indef": 36408, "aksikan": 182606, "izuje": 217356, "▁Lago": 101071, "▁성": 25439, "▁Parents": 45967, "▁отриму": 203661, "沙": 239399, "▁Lega": 236129, "툐": 255910, "diagn": 63764, "模仿": 195965, "▁DDR": 71151, "iosamente": 203103, "kitten": 231775, "▁Ál": 85963, "▁penny": 55890, "▁स्ट्र": 61748, "غر": 114030, "ブレ": 86607, "狲": 254703, "ঞ্চিত": 100197, "obytes": 151577, "ِّف": 157608, "▁ξε": 91121, "▁midrange": 203086, "ம்பரிய": 185884, "▁prawns": 122824, "▁никакого": 196966, "▁passt": 133761, "▁whisky": 76155, "ależ": 100281, "䅞": 250167, "▁contento": 235560, ",’’": 132570, "▁オーバー": 209862, "▁homeomorphism": 85252, "▁innings": 35735, "▁क्षेत्रा": 177147, "Ride": 138674, "▁vaikka": 231611, "ffes": 204517, "▁будут": 41067, "traces": 149781, "▁শেষে": 49441, "Mitt": 194643, "谴": 246138, "COT": 152729, "▁Balanced": 140770, "वळ": 44787, "<unused105>": 256007, "▁günü": 118875, "<0xC3>": 433, "▁柄": 152939, "▁Stephenson": 131958, "▁space": 2557, "▁AMD": 42155, "SpacerItem": 211612, "蹭": 244693, "▁తాగ": 225497, "▁express": 3821, "introduced": 103450, "idine": 25303, "ondale": 179394, "▁dinam": 75950, "<unused3701>": 259603, "▁akibat": 108302, "▁Chọn": 203720, "秽": 246832, "▁transmisión": 88296, "<unused5082>": 260984, "▁Naam": 117819, "▁mildly": 105297, "ifs": 15058, "▁صن": 111510, "▁объем": 117111, "▁prawn": 72846, "μένου": 149398, "▁Кі": 212845, "▁bekom": 97305, "▁Yeast": 186821, "▁Natives": 202582, "itary": 74584, "▁cub": 11351, "▁ذہ": 103248, "▁numbers": 4945, "▁parabolic": 76511, "iqueness": 180578, "▁Carbohyd": 191286, "▁株": 167446, "▁избра": 224049, "죤": 249883, "▁acontecimientos": 182085, "ilmesi": 149495, "రే": 60737, "▁কোথায়": 98817, "金融": 45408, "DOL": 120907, "▁cess": 56123, "▁कदा": 229815, "hiq": 92911, "Optical": 130015, "▁Montague": 216070, "▁logins": 159870, "opium": 184198, "Solution": 15607, "▁capitals": 115441, "éclair": 157125, "طقة": 106550, "▁mayor": 12181, "胯": 245982, "▁paralel": 150708, "fühl": 186219, "しまう": 47847, "▁accol": 82054, "日数": 228631, "▁côtes": 211787, "▁sentimos": 172712, "▁дополнительных": 197117, "▁ইমর": 151842, "▁ವರ್ಷ": 84755, "न्ति": 229915, "▁distinction": 23469, "🙁": 246254, "TED": 136435, "▁சக்த": 192011, "▁Translate": 55341, "▁crowning": 196876, "▁ர": 15618, "Diagnostic": 121723, "▁DefaultTargets": 222996, "ystate": 136857, "▁règlement": 126468, "詆": 254443, "美麗": 227726, "▁patchy": 216610, "▁]];": 87038, "▁பங்க": 172614, "蚂": 244263, "サリー": 69611, "Universal": 82774, "шев": 126472, "▁pwm": 64110, "прави": 32821, "▁mouth": 11203, "かい": 69959, "▁considerably": 22181, "▁줄": 60560, "ScrollBar": 151904, "▁\\*": 116455, "▁sickening": 217579, "尋": 241755, "▁splitting": 34684, "▁Esses": 180803, "▁Fremantle": 224194, "RENCY": 214047, "cyber": 145978, "▁doch": 32019, "▁দেবযানী": 82000, "さは": 155679, "安排": 56503, "性价比": 214150, "▁freshman": 46286, "▁leaflet": 110545, "urses": 199274, "▁поколения": 168204, "▁Drexel": 214041, "ң": 238259, "▁медицинской": 210437, "ങ്ങൾ": 24477, "clipped": 113680, "▁personalizar": 161019, "ｂ": 243081, "uskan": 140979, "▁Brookings": 183250, "Downloaded": 203216, "套装": 228071, "Rights": 184603, "Ħ": 246351, "nań": 198281, "思います": 207564, "▁আদেশ": 89369, "ޅ": 242684, "▁heterozygous": 131332, "Concurrency": 219045, "▁તેઓ": 79371, "▁wartości": 145953, "▁Н": 4262, "**,": 125546, "▁заги": 225885, "เจอ": 191016, "苚": 251827, "▁行っ": 206264, "▁Monat": 103729, "▁GUAR": 141661, "▁relacionado": 105628, "扱い": 110682, "▁homosexuality": 139683, "…,": 197614, "Knife": 197965, "держание": 181910, "▁trimester": 118946, "▁successively": 89089, "▁ентитету": 94062, "▁दिग्": 104109, "ूतक": 113913, "▁وبر": 30529, "▁Владимира": 213163, "▁spheroid": 170611, "▁welcomes": 65997, "ından": 18202, "ords": 2237, "ifferentiated": 132653, "同时也": 179093, "▁麻": 220044, "èmes": 33936, "stift": 225105, "▁വല": 130036, "▁উদ্ভাব": 232954, "់": 238037, "▁newInput": 176290, "renia": 199375, "<unused865>": 256767, "TrackAngleCut": 226707, "częściej": 198176, "صد": 29191, "▁სპეცი": 214755, "▁Gentleman": 67210, "▁/-": 222997, "editable": 119657, "▁élargies": 215597, "harmony": 217596, "▁Temperaturen": 201992, "▁esemplari": 153152, "transpose": 67450, "▁висо": 77675, "▁మీ": 34284, "캅": 255679, "▁Guzmán": 224602, "▁tuna": 60879, "▁Elec": 152566, "setObjectName": 54394, "▁sowohl": 74006, "▁pokazuje": 224322, "indari": 186046, "▁parenteral": 103585, "glightbox": 148406, "▁Gut": 50108, "<unused1386>": 257288, "▁goalt": 186596, "Norway": 151045, "▁spost": 142651, "▁direta": 197340, "គ្នា": 152393, "▁suunn": 171454, "▁\"^": 15053, "終わ": 76190, "▁Schönheit": 226820, "UE": 4708, "的好": 64395, "▁colonia": 136426, "▁Hành": 232081, "▁estrés": 147106, "▁সার্বভৌম": 155763, "▁अला": 186704, "▁LENGTH": 140807, "inado": 67441, "▁Gilead": 199876, "▁Jong": 65342, "▁gom": 82823, "▁lup": 69172, "のですが": 40996, "يفي": 227783, "▁库存": 174855, "▁กล่าว": 172483, "▁Daniel": 13108, "▁Chichester": 188945, "▁رمز": 163017, "Heather": 165606, "nections": 11517, "▁PEP": 125615, "▁joking": 106293, "▁exploded": 66543, "Õ": 241985, "▁etwas": 30300, "▁লক্ষণ": 104176, "ザー": 28798, "▁निर्णया": 203870, "检察": 229061, "egir": 120043, "歸": 242111, "acyj": 44974, "riqu": 79461, "▁abuse": 16407, "ܕ": 240599, ";',": 104933, "correct": 19448, "▁'':": 107855, "<unused4503>": 260405, "PVC": 119052, "<unused3356>": 259258, "▁necrotic": 198150, "imageCache": 232835, "ajima": 101741, "▁ganancias": 205048, "hese": 102063, "▁Apk": 101197, "▁coprodu": 234229, "▁carboxylic": 128555, "▁स्मिथ": 186462, "수상": 157821, "ุ่ง": 114906, "▁Стре": 207888, "▁Incent": 118444, "спи": 106109, "▁?$": 205761, "▁exemplify": 205860, "={[": 137356, "ücht": 221621, "iennent": 38558, "Mississippi": 193850, "<unused1798>": 257700, "framework": 6617, "为了": 22673, "▁бонус": 76275, "▁mapDispatch": 165263, "▁Immun": 30383, "▁система": 43394, "ングラス": 119863, "▁tránh": 113759, "▁considerando": 126510, "▁anunciar": 222813, "ള്ള": 13658, "że": 9492, "నాన్ని": 234854, "▁vriend": 110813, "▁MILLER": 187714, "ことがある": 154983, "specifiedByURL": 220141, "ኙ": 242514, "ريم": 66694, "gallery": 26781, "టానికి": 222471, "▁ligeramente": 153027, "ど": 237544, "▁нала": 131789, "▁ಕುಟ": 170356, "ξει": 132596, "Face": 17601, "▁कंज": 166263, "opro": 38110, "Subscription": 58179, "▁बीमार": 50843, "▁effecting": 153901, "omorph": 11276, "equation": 8539, "<unused1012>": 256914, "▁Deadline": 96798, "▁Martel": 204619, "DataBase": 217224, "▁zaś": 175825, "▁assicur": 133780, "▁hexa": 152571, "台灣": 44953, "alert": 16023, "น์โหลด": 236178, "▁precum": 124004, "▁അതിനാ": 233068, "技": 237962, "▁Abst": 145009, "砻": 248974, "▁शब्दों": 61120, "pw": 55883, "එ": 239453, "▁Upp": 150208, "<unused4244>": 260146, "▁tiem": 12602, "Finger": 194928, "▁$.": 20120, "輸入": 62588, "旁边": 143853, "▁Web": 6940, "▁أت": 233126, "》": 237821, "▁enig": 108338, "disco": 227747, "▁hats": 43119, "▁બ્": 216993, "ంచ్": 236491, "▁ودي": 161186, "▁Entonces": 23078, "▁prohibit": 60473, "<unused4038>": 259940, "▁summertime": 110198, "cdnjs": 72479, "▁USART": 66805, "▁الواحد": 135444, "栃": 243998, "▁જેમ": 146798, "▁abbreviation": 108269, "▁perny": 220196, "分隔": 193741, "▁दिवाली": 156749, "▁trance": 149290, "ўся": 206110, "▁millionaire": 137945, "▁деше": 142111, "▁aktuell": 128821, "▁gaat": 53124, "▁ততদিন": 199017, "}=(-": 221927, "▁acima": 87722, "▁Surround": 192842, "१९": 143992, "<unused2556>": 258458, "▁активи": 133220, "मेरा": 118512, "▁Sultan": 53866, "▁ending": 16548, "RESOLUTION": 189145, "されています": 58525, "▁congress": 30280, "หว": 58177, "नहीं": 136109, "uad": 192166, "erek": 17000, "െന്നും": 52057, "▁PTE": 180394, "erve": 5614, "▁Ж": 23706, "▁பார்க்கும்": 195563, "▁sandals": 60840, "Trainer": 159282, "素材": 38994, "▁Lumin": 129721, "▁childnya": 233516, "▁ساده": 160736, "▁seawater": 102716, "▁incrível": 193032, "▁Building": 16087, "_{+}\\": 89180, "▁ong": 66062, "Command": 9146, "▁fancy": 28149, "ਛ": 243286, "躬": 245400, "ư": 237090, "avais": 74157, "逭": 253778, "ির": 3394, "▁रिप्रोडक्शन": 174486, "▁secretly": 63787, "Till": 112222, "▁vt": 133997, "tahun": 171354, "▁hebben": 29541, "oute": 3578, "▁Kear": 106926, "▁Against": 38104, "▁Swagger": 150027, "calculate": 30718, "orty": 124296, "▁fotografías": 120893, "▁hypersurface": 152181, "▁subm": 86833, "▁baat": 100533, "▁alone": 7057, "▁Tactics": 179287, "▁Nearby": 98733, "▁શિક્ષ": 154298, "โพ": 180446, "▁దర్శక": 195587, "▁Variety": 84888, "textbackslash": 73743, "▁descended": 78018, "▁ls": 60068, "Blu": 163119, "φέρον": 228743, "✊": 246239, "ஷ்ய": 129336, "▁그죠": 136190, "▁रिकॉर्ड": 54768, "<0x0E>": 252, "▁відо": 94872, "敍": 252103, "▁Bryan": 42250, "肋": 244080, "▁barbar": 92025, "▁Harlan": 171846, "▁Revolución": 200370, "对称": 225491, "▁产品": 132540, "<unused2278>": 258180, "cesis": 216692, "▁கதாபாத்திர": 207961, "▁atti": 194303, "▁surgeons": 70446, "▁bewildered": 191556, "▁Lern": 156381, "▁diat": 165455, "▁semblent": 151119, "abilir": 28074, "▁Peloton": 163546, "十柒章": 236378, "সংস": 107928, "▁hooded": 80814, "▁decipher": 100938, "清晰": 87571, "vline": 152702, "▁Hate": 118217, "▁reaf": 211397, "🕔": 255319, "▁govor": 140456, "°)": 80024, "monia": 102651, "▁Gwyn": 166708, "ነት": 36415, "▁schwer": 62981, "▁ハン": 162711, "▁Saison": 80477, "▁моделей": 138235, "}}$$": 157684, "𝗯": 250073, "通路": 232698, "▁înce": 105075, "<unused1519>": 257421, "▁adaptability": 104761, "opened": 41493, "setAdapter": 127334, "": 253632, "']));": 136096, "рт": 8602, "▁часто": 37666, "▁quotations": 79547, "Mm": 112195, "▁Goal": 55733, "мітки": 138766, "िकांनी": 216539, "▁concentra": 163371, "দায়": 102598, "▁घेण्यात": 183489, "▁gå": 62731, "セン": 32640, "▁lomb": 151122, "▁पेंसिल": 220927, "▁Pantone": 224723, "▁partying": 149199, "▁கூ": 12759, "▁los": 1450, "▁अजि": 214281, "▁impedance": 32451, "▁increment": 19104, "場面": 173353, "序号": 185248, "AINLESS": 194497, "Ciao": 150917, "▁ند": 65497, "茄": 242783, "鞘": 244975, "▁Kubernetes": 63922, "uatan": 96129, "pipeline": 52664, "ירים": 153851, "▁करार": 97574, "▁reden": 119835, "।’’": 91469, "ammatory": 22157, "▁sucker": 146677, "▁बातों": 75579, "▁percolation": 172789, "▁uuid": 53817, "▁JJ": 63669, "рованное": 230858, "▁Ми": 19937, "▁Archipelago": 187195, "▁unpacking": 191362, "▁)}": 39884, "▁Purification": 156037, "▁restrictions": 14523, "▁प्रतिक": 42710, "輒": 248275, "sendKeyDown": 219922, "▁ase": 73269, "▁equivoc": 216502, "▁resourceful": 178970, "▁Justiça": 155056, "▁ताम": 230438, "▁भोजपुरी": 179711, "▁ammunition": 61616, "ikian": 73681, "Cle": 12785, "▁phường": 193491, "<unused3075>": 258977, "hiti": 122289, "League": 77763, "انوں": 153355, "Vector": 10860, "▁appellate": 80091, "▁nossa": 26271, "▁Melanes": 218586, "▁Mez": 137877, "▁recycle": 68475, "Workbench": 229606, "▁വിമ": 212264, "Isa": 74234, "▁ત્યારબાદ": 216167, "Dimensions": 55141, "احة": 207036, "فهام": 214314, "Extern": 117887, "▁velas": 223866, "▁teenage": 41639, "▁sportsman": 114945, "anns": 178742, "▁আদৌ": 219597, "▁Caramel": 189303, "σίας": 148919, "elementAt": 121244, "包装": 64109, "▁grads": 174985, "▁charme": 164129, "ита": 52760, "ReadLine": 35403, "▁bestand": 133018, "さに": 94354, "▁casts": 78078, "Const": 9390, "পর": 8821, "鉢": 243297, "KBr": 179801, "▁遅く": 230197, "]);}": 186284, "中间": 70658, "كو": 67418, "▁Cheng": 51314, "▁হলাম": 213936, "Lab": 21567, "नुसार": 60770, "▁ა": 21020, "𒃧": 252946, "▁המת": 200384, "蘭": 240850, "▁Dys": 80560, "▁कमि": 197989, "śa": 215796, "GetString": 112552, "into": 15040, "▁কমি": 22891, "Philippe": 191034, "ટ": 237624, "▁Sehingga": 190204, "mothers": 159557, "大陆": 100961, "이에": 75011, "の意味": 219808, "▁Emile": 186975, "գ": 239534, "EPA": 82675, "▁Geheim": 197890, "ํ": 238800, "thymeleaf": 215126, "鑊": 251175, "▁آدمی": 147149, "な": 237050, "▁embrace": 29887, "▁исче": 157193, "▁seniors": 40102, "낌": 242211, "▁भेजे": 129889, "▁coolant": 60269, "curr": 24902, "щики": 162658, "ético": 43350, "Reed": 166823, "ÓN": 34643, "汾": 246295, "](": 5457, "▁صعب": 221832, "▁Location": 21617, "▁extinguisher": 196064, "▁RFID": 105220, "同じ": 32437, "layan": 123952, "urch": 3206, "▁будто": 147035, "▁ettha": 39565, "acts": 89073, "▁FLAT": 184363, "igs": 22103, "▁olur": 66231, "ధిక": 139648, "pandas": 80468, "▁unut": 103993, "arnia": 148318, "▁mínimo": 58419, "▁lakukan": 95537, "uiDesigner": 188129, "कृष्ण": 78945, "▁hog": 32055, "indexPath": 83229, "▁Stanley": 33026, "Wid": 129557, "推荐": 42929, "▁Hispanics": 159115, "▁খেলার": 145951, "ائه": 71027, "▁डेयरी": 181258, "でき": 8838, "▁jasper": 103193, "▁শাও": 188022, "鵑": 253121, "Rightarrow": 13676, "かない": 80742, "ம்பிய": 213258, "iciency": 6371, "▁говорили": 185257, "sqrt": 4784, "APPS": 195232, "▁Jé": 219788, "▁Gemeins": 154672, "icznej": 162494, "▁جاتی": 80745, "谀": 252637, "▁zwycię": 215867, "▁constraining": 230579, "াপা": 35326, "▁связана": 216088, "▁Obama": 20348, "<unused4773>": 260675, "▁ร่วม": 216397, "▁UNS": 84410, "▁GAM": 91960, "ｎ": 243012, "▁내용은": 175391, "▁embarrassing": 68642, "ның": 40337, "▁SIT": 115197, "<unused4837>": 260739, "𒍟": 255601, "▁Motivational": 212799, ")}`;": 65137, "▁विवाद": 53177, "▁kirj": 165055, "▁emotive": 213645, "HashMap": 34139, "▁مطال": 137213, "ősz": 166951, "▁العين": 215006, "▁restaur": 5786, "clinical": 72414, "▁unites": 142714, "ODM": 226441, "padStart": 178072, "▁tòa": 161291, "▁assure": 30196, "▁Interfer": 202076, "펴": 241585, "SearchCV": 123443, "ാനുള്ള": 110357, "▁जिम्मे": 42285, "trends": 231787, "▁فرض": 170335, "▁चुनने": 161314, "রের": 10499, "請": 239230, "ピック": 99874, "▁incênd": 204211, "▁lote": 123815, "▁Ogden": 155851, "▁setLoading": 219152, "▁تكتب": 216111, "कार्य": 124901, "▁enzym": 13635, "▁BREAK": 114305, "uliers": 108719, "▁tiden": 116578, "▁Simply": 35979, "ाइक": 165020, "▁använder": 184371, "লেম": 162763, "Roboto": 74650, "㤈": 251803, "▁heavily": 18677, "𝜃": 252156, "▁ইন্ডি": 103310, "▁prestigio": 214923, "▁↓": 72565, "ූප": 168755, "Visitors": 144949, "sax": 102909, "▁السكان": 143963, "isz": 45814, "▁Investig": 39147, "énieur": 159598, "知県": 184550, "▁تعمیر": 125366, "▁volle": 152225, "▁Happy": 20728, "▁enda": 141680, "▁manos": 50204, "▁détail": 127568, "恐怖": 84795, "ringer": 65039, "▁biologiques": 228922, "▁শাহরুখ": 178527, "▁단위": 155043, "និត": 203602, "📷": 245038, "▁Imit": 177218, "▁largos": 181521, "▁நடந்து": 134193, "▁mendatang": 217716, "▁রেজিম": 173554, "мули": 113185, "𝑝": 248497, "▁време": 74913, "替": 239276, "Nexus": 210050, "▁say": 1879, "▁Classification": 41173, "▁sắp": 116021, "▁দৃ": 33536, "▁veil": 64681, "ezas": 140038, "▁leisurely": 118367, ".//": 162430, "▁subscrib": 25157, "▁Assuming": 47883, "都在": 56285, "▁Keating": 199069, "▁daylight": 58745, "Maritime": 182683, "▁resolução": 116546, "▁Pope": 30723, "▁vestidos": 139361, "fidelity": 110073, "iyy": 149823, "买了": 223161, "▁Gaulle": 130695, "▁सर्दी": 123361, "▁ache": 44900, "▁Amiri": 120930, "▁supplemented": 52569, "▁đều": 37172, "ố": 237290, "נס": 73983, "ног": 230730, "下拉": 171590, "▁reincarn": 128179, "▁ওকে": 192534, "放心": 120528, "冲突": 108911, "はこちら": 76252, "Ци": 214311, "aining": 12179, "▁Silas": 205520, "▁Raphael": 98043, "🌟": 242507, "かつ": 77591, "▁Lynx": 193213, "▁failing": 26929, "▁যেখানে": 31076, "▁horizontale": 193043, "cursion": 101607, "▁ইতিহাসের": 126211, "▁paral": 28767, "▁liber": 20144, "ববার": 102807, "▁sulfonic": 230094, "Slides": 64232, "▁Пан": 205469, "뮤": 241670, "려고": 81925, "▁Spartans": 139293, "▁operating": 8172, "semin": 102289, "Forever": 178070, "▁انج": 35437, "ையுடன்": 200615, "▁Burnett": 114674, "▁sweetener": 171414, "albeit": 160467, "Neb": 156446, "▁spect": 4641, "▁సందర్భంగా": 144888, "ד": 237519, "VY": 112204, "▁paździer": 139549, "inor": 97234, "▁incapable": 66865, "▁recept": 12555, "дал": 92219, "ckiej": 221548, "▁imit": 146820, "▁Tempor": 53099, "yang": 37026, "េទ": 162420, "明年": 149743, "▁भेंट": 179035, "▁Christian": 9531, "nsan": 191856, "▁unlocked": 72292, "▁maggior": 58299, "จุ": 106176, "▁склон": 224508, "▁produ": 1130, "▁seismic": 54226, "▁мужчин": 157660, "▁Mathias": 173660, "bedrooms": 215992, "ুনা": 228331, "سات": 75979, "▁OPER": 66200, "や": 237512, "▁phosphatidyl": 230376, "TRUE": 22369, "edge": 9003, "ियन": 17676, "▁سپاه": 204575, "unset": 110603, "माही": 80473, "ــ": 26269, "▁pantal": 120290, "<unused1831>": 257733, "বিল": 128899, "▁रखिए": 187025, "▁الحاله": 196209, "िति": 139547, "▁রাজশাহী": 121357, "▁سب": 17305, "kop": 47187, "рсә": 175413, "▁principais": 75377, "pie": 8776, "▁चोट": 82406, "▁pragmatic": 80569, "▁qualche": 60608, "▁Sebagai": 126871, "▁doppio": 184612, "გუფი": 174737, "▁ശേഷം": 111418, "▁atomically": 152048, "▁preventiva": 214539, "conn": 18147, "▁Bogdan": 125875, "▁সভ্য": 192633, "▁tricks": 34296, "▁طا": 126348, "結婚": 55262, "▁फ्रंट": 84913, "椹": 253795, "Alert": 17961, "修炼": 123318, "▁bodybuilding": 181413, "▁तात्": 168760, "Mountain": 71878, "\\\"": 8455, "效应": 122877, "▁озе": 91284, "Underv": 217120, "Οι": 160838, "疤": 244792, "▁घूम": 81742, "▁Ман": 128523, "üre": 136009, "▁Revue": 153131, "hesized": 192617, "▁bekam": 220619, "zoek": 55238, "SC": 7427, "▁oWord": 140789, "netflix": 128895, "牠": 244524, "বা": 8332, "વાનું": 79699, "▁Lazarus": 137504, "STRUCTOR": 217178, "▁शान": 38343, "▁aconteceu": 127881, "ˮ": 252807, "یشن": 45616, "DbContext": 68047, "▁chute": 81813, "▁বিস্ফো": 186994, "▁entorno": 67902, ")//": 60860, "logram": 132703, "▁mixte": 209135, "𒈕": 251550, "▁مكت": 170882, "اردوشاعری": 215091, "期的": 56185, "∀": 241906, "▁প্রাপ": 167627, "goods": 71386, "▁haki": 229600, "▁ясно": 197967, "Lyn": 164966, "▁mainten": 154161, "鞋": 240457, "▁tuyên": 163130, "чина": 22069, "▁धात": 90717, "📨": 251184, "▁MIC": 54543, "▁оке": 151186, "在哪里": 208396, "лаш": 108491, "<unused4640>": 260542, "soldiers": 113079, "▁African": 9992, "ľov": 211078, "輕鬆": 180654, "verts": 33278, "▁ஆண்டுகளாக": 172191, "▁memory": 6571, "yyati": 122975, "kara": 51405, "嶋": 244628, "戏剧": 193430, "▁Fram": 56230, "chau": 142401, "抜き": 181182, "▁FUT": 230118, "టు": 19350, "▁Tuhan": 103588, "▁ভারতীয়": 29968, "▁bulging": 187053, "शियल": 101321, "▁기술": 67179, "▁accentuated": 177415, "▁comportamiento": 79022, "▁padrão": 98593, "🍤": 251470, ":*": 149681, "▁VALLEY": 218371, "类的": 77159, "谦": 243418, "▁mortem": 230999, "<unused3829>": 259731, "▁Increased": 59067, "ಸ": 237302, "Stein": 134532, "ভক্ত": 228928, "solution": 47213, "Fear": 117159, "USERS": 156970, "▁etmektedir": 231455, "today": 31524, "颜色": 55722, "▁cumpr": 115472, "strcpy": 82428, "fordshire": 136628, "▁журна": 149819, "▁competency": 86179, "▁હત્યા": 217517, "뭄": 249595, "▁Ambassadors": 163028, "▁polluting": 154889, "▁opgenomen": 208150, "▁Annex": 73952, "▁private": 2147, "']))": 36083, "▁automático": 134574, "晚": 239278, "▁ronda": 148011, "▁aperture": 47629, "▁নিশ": 221436, "▁ноги": 167603, "Kamu": 226912, "▁나오는": 149974, "▁tehd": 111285, "igene": 139736, "▁Lakh": 136298, "▁Artur": 225245, "▁সূত্রের": 204558, "శ్వ": 173720, "▁Topics": 66864, "akath": 72233, "的时间": 52432, "Sof": 139642, "▁Polsce": 101452, "▁ब्लैक": 74530, "▁pulver": 99285, "▁Maschine": 169895, "周": 238243, "▁Trick": 117849, "▁sẵn": 103214, "▁crossbow": 212334, "▁ಮತ್ತ": 124677, "со": 3414, "▁Consumer": 32314, "集": 237927, "▁Should": 18975, "▁runga": 224048, "<unused3413>": 259315, "▁NAVIGATION": 41539, "▁متحد": 128259, "izas": 123013, "▁போலவே": 195088, "łaszcza": 207171, "ணர்வு": 229571, "▁انہیں": 61844, "▁বাসস্থান": 213056, "諜": 246622, "兢": 245511, "▁rectangular": 30777, "ద్దు": 170682, "▁dyed": 80600, "जिया": 157459, "▁выражение": 207680, "▁définie": 199341, "Thank": 14782, "▁steeds": 92302, "▁sian": 230105, "▁benefits": 6417, "⣤": 254906, "स्टार": 97872, "▁कमाई": 61737, "ارش": 147804, "<unused1034>": 256936, "▁Palest": 25766, "climate": 66518, "▁Blo": 12299, "随即": 201956, "葛": 241786, "▁загряз": 231059, "▁हेनरी": 196125, "ROCK": 128195, "azar": 23176, "▁unknow": 137132, "▁ग्र": 8773, "ibacter": 135646, "▁Alcohol": 50377, "isure": 25105, "dropBtn": 114995, "": 249367, "▁weit": 63843, "▁monstru": 168247, "堯": 245960, "yun": 37859, "▁AFD": 162090, "▁troubles": 25427, "agricult": 84742, "▁gering": 76987, "▁অভিব": 88166, "Safety": 61569, "джер": 227422, "乎": 239222, "^{(": 14894, "▁therap": 9306, "生態": 207312, "▁mudah": 52888, "▁vann": 53745, "▁ალ": 133852, "▁wszystko": 88560, "▁Stead": 222008, "クリー": 137834, "▁impossibility": 137954, "▁devo": 93438, "oleans": 202427, "䤃": 254790, "▁Ảnh": 217926, "▁Caes": 133901, "extreme": 129303, "ಇದ": 178235, "bogen": 235868, "▁MSN": 172333, "不能": 17055, "▁retained": 27164, "_;": 43497, "▁کمار": 214848, "▁TeV": 147589, "Depart": 42265, "\u001a": 255485, "的我": 204907, "▁लक्ष्यों": 215887, "Bened": 192758, "▁Anchorage": 150985, "▁blossomed": 190088, "letzt": 93095, "television": 89037, "llä": 136852, "▁utk": 174335, "▁architecture": 13217, "calls": 105371, "ミー": 84877, "▁パー": 64498, "▁পাচ্ছি": 182023, "Cave": 169359, "▁divis": 19868, "▁Spar": 66927, "▁intención": 114131, "ordelen": 200509, "<unused1056>": 256958, "<unused3735>": 259637, "▁பிரசா": 218783, "▁uso": 17334, "▁đặc": 42827, "ষ্ণ": 46633, "▁}}$,": 87668, "机关": 94303, "▁terrenos": 198091, "▁Danielle": 92569, "Tx": 40015, "▁oils": 24911, "▁fels": 96948, "вица": 194800, "▁च": 1495, "▁gradation": 227859, "▁celebrated": 23101, "वर्ती": 92979, "▁nitrous": 147494, "..”": 125717, "uvat": 143513, "▁பாம்பு": 235206, "പോ": 78845, "ylation": 47993, "▁তৎকালীন": 155894, "で行": 95412, "▁తన": 49355, "▁सेंटीमीटर": 177367, "മ്പി": 199062, "▁dommages": 182076, "▁Casino": 28528, "TM": 20008, "▁clinician": 112071, "SIS": 191740, "arti": 31548, "▁genoeg": 150134, "▁generals": 85876, "輙": 254522, "▁Tre": 10579, "蛋白": 67871, "▁größ": 54357, "แล้ว": 35636, "ће": 98706, "addAnimation": 124262, "▁introdu": 3942, "▁comentado": 229502, "する必要があります": 155504, "osit": 22914, "▁accusations": 64496, "▁LY": 83331, "▁disbursements": 157441, "▁الأن": 207305, "最优": 180728, "▁hervor": 146800, "ي": 236894, "▁Pháp": 128487, "<unused688>": 256590, "𒑓": 255624, "▁remastered": 205340, "▁CGFloat": 46495, "▁अभिने": 44938, "QUES": 81383, "<unused1167>": 257069, "▁cunning": 112018, "ว์": 105633, "▁dış": 64621, "▁Leland": 229969, "ebu": 79961, "쐐": 250877, "Dictionary": 19957, "entemente": 120979, "ských": 132665, "▁comprar": 39400, "▁Michelle": 41188, "Controllers": 19641, "▁trate": 219061, "otip": 116764, "▁preguntó": 223899, "▁боро": 114083, "TorpedoStore": 167031, "agę": 124636, "▁Hoch": 38498, "өрү": 210258, "date": 1896, "<unused5492>": 261394, "favourites": 214725, "▁கட்ட": 32311, "uku": 21860, "▁৮০": 138463, "雦": 249678, "▁chromium": 65770, "Vend": 150551, "紅": 239691, "strMeal": 143288, "時短": 218330, "▁Naz": 30268, "ooq": 181894, "▁ἐ": 55856, "λη": 23962, "燡": 255950, "揾": 253471, "▁pourrait": 48559, "usta": 41513, "dek": 49837, "보고": 107910, "Ut": 8016, "motionProxy": 114366, "▁молока": 199023, "▁reverence": 104233, "ধ্বনি": 176247, "▁convierte": 97987, "▁tortoise": 132199, "pository": 13261, "驢": 247009, "edores": 64559, "AsyncKeyState": 91158, "颯": 247409, "▁смысла": 218009, "▁pala": 87482, "▁જન્મ": 100060, "▁oceans": 59950, "▁нега": 102169, "strual": 184748, "▁siè": 37234, "▁gallium": 141699, "▁AM": 8151, "▁toothbrush": 75942, "ローマ": 89664, "▁mL": 55293, "▁motive": 47564, "则是": 87050, "<unused3663>": 259565, "▁tendo": 93603, "Report": 15764, "ขาย": 94500, "▁Shetty": 115656, "▁harm": 7342, "odie": 90083, "▁intensa": 156262, "▁PC": 7294, "▁נע": 190107, "𒁓": 250400, "▁Eden": 56431, "दित": 118431, "ongs": 46503, "ன்ப": 11224, "\"[": 77074, "tracker": 38535, "úsica": 132812, "▁shaken": 68695, "Defender": 201866, "Tas": 135704, "Justice": 72199, "▁ទ": 176166, "igarh": 88486, "▁infantil": 75438, "▁आंबेडकर": 192467, "AutoField": 116354, "▁Genealogical": 145414, "▁ilk": 39152, "▁भयानक": 228603, "encore": 221365, "Mounted": 218272, "▁সিলেট": 94155, "AGG": 77470, "LinearLayout": 54608, "┐": 244884, "▁संयु": 150669, "▁المخت": 231217, "▁Taliban": 57854, "▁Complaints": 201028, "特色": 65579, "плей": 172783, "▁genital": 64007, "▁TRAILS": 127137, "кре": 21559, "Viewing": 151964, "🤑": 246300, "▁Thom": 18262, "▁terminó": 139313, "濬": 254071, "▁lineColorSpace": 219833, "ková": 74355, "}}=-": 158668, "zyma": 79712, "anten": 31611, "尤其": 50293, "ラリー": 148770, "Жен": 40795, "▁Lunch": 69660, "▁viêm": 154021, "▁bial": 76882, "▁chữa": 128643, "inspection": 88180, "▁ум": 67317, "慓": 246912, "▁ARXIV": 204766, "▁Intro": 68726, "▁Evan": 59069, "▁लाभदायक": 182080, "蘿": 244338, "▁stirring": 45985, "▁firefighters": 72711, "▁upfront": 82425, "Ⅱ": 243288, "▁ristorante": 203380, "SOFTWARE": 136524, "🤐": 248089, "ණු": 148696, "▁Tomlin": 234899, "dp": 19615, "ტიკ": 123035, "ívar": 137274, "Rpc": 141326, "▁दें": 17316, "endif": 19553, "DenovoMis": 165237, "▁quotation": 60414, "forder": 59662, "anso": 75447, "▁productive": 23904, "挟": 243463, "과의": 145077, "Stacks": 156914, "▁chon": 147832, "ící": 41709, "استشهاد": 218733, "▁Fo": 35902, "▁Consultancy": 198070, "theon": 202935, "▁noite": 51362, "▁nois": 130681, "▁Pizz": 212667, "ivali": 174857, "🗒": 253588, "CREATE": 16243, "ಲಿಯ": 151276, "▁potrz": 173439, "GF": 15015, "aseti": 164772, "ज्ञात": 113279, "㽞": 251889, "▁Fool": 77625, "▁কাঁ": 60803, "▁chrys": 116419, "▁Higher": 34474, "apet": 92339, "啓": 243988, "▁Swansea": 129332, "mités": 174863, "▁sweeteners": 197183, "▁anomalous": 66160, "раз": 16419, "dcsset": 99304, "▁Augsburg": 132382, "▁kilomètres": 149752, "<unused4>": 10, "▁beginner": 52766, "髻": 247852, "▁ид": 74972, "lipidemia": 215536, "<unused3199>": 259101, "▁fom": 138756, "Avro": 234484, "\\{-\\": 195671, "▁McGregor": 102816, "Arctic": 150131, "シェル": 185869, "▁PICTOGRAM": 7401, "unciation": 50665, "▁черво": 218211, "kau": 64487, "royo": 114777, "▁popularized": 179339, "▁Phosphorus": 220627, "▁vijf": 148335, "Departamento": 99948, "▁боль": 11654, "ŏ": 246079, "▁डिजिट": 171066, "Separ": 38823, "льга": 109825, "▁разо": 76136, "▁Bost": 130014, "пти": 78259, "ವ": 237260, "STAR": 48928, "Cntr": 149500, "তথ্য": 209585, "▁letter": 6064, "▁Emir": 39428, "▁derrota": 137629, "工地": 224231, "▁উইল": 168757, "▁Sun": 7718, "▁स्वाभाविक": 175400, "▁সেন্টার": 163836, "▁Rab": 25722, "lvmama": 226676, "льність": 153244, "ඔ": 239799, "bestroute": 179666, "LAT": 88171, "fea": 167559, "▁Vary": 167407, "지요": 210177, "▁agencia": 133240, "▁দে": 3057, "▁lawsuit": 34656, "▁rearranged": 148746, "回应": 154580, "▁photocurrent": 206989, "რივი": 134205, "▁ross": 113626, "▁Mejor": 135168, "▁অস্বীক": 231325, "▁வளர்ச்சி": 105079, "▁intim": 62748, "𒐶": 255618, "titulo": 63607, "ínas": 91521, "▁UV": 19296, "heal": 151332, "signUp": 180745, "쩔": 245340, "▁indywidual": 167195, "▁fact": 1707, "▁ওয়ার": 122854, "▁पेशेवर": 107995, "𝘩": 246654, "piele": 92677, "▁Verwaltung": 145563, "▁completing": 25409, "▁aptly": 121413, "▁isolate": 38036, "胺": 242201, "Removed": 108470, "foils": 234362, "indexes": 86398, "製品": 44826, "▁unix": 163116, "Boom": 122196, "▁失": 209237, "▁फिस": 186221, "▁strumenti": 124090, "▁যোগদান": 148665, "▁Boys": 33934, "▁przetwarz": 190706, "▁Ashby": 225091, "▁Pupp": 59445, "yat": 69614, "veillance": 165044, "زب": 78132, "▁cosmos": 91771, "▁Frum": 205911, "াপনের": 162947, "cohol": 9300, "▁yardımcı": 118097, "▁notices": 46725, "?:": 14657, "SAT": 88674, "ออกแบบ": 205369, "▁перспек": 177167, "▁возможности": 76996, "jfif": 162163, "▁contenders": 100491, "Investor": 165531, "▁পরিস্থিতিতে": 104927, "▁deterrent": 112090, "lard": 85445, "chend": 50133, "▁மழை": 128952, "▁Avon": 107770, "كيت": 218043, "▁foot": 3998, "▁enferm": 186492, "▁Stories": 33403, "▁franca": 202006, "вах": 115469, "▁expediente": 231686, "▁квіт": 88287, "▁voed": 163657, "cene": 94006, "RADIATION": 235664, "▁traz": 69661, "<unused1063>": 256965, "임": 239002, "እንደ": 230433, "染": 239040, "rmse": 103902, "▁कैंडिडेट्स": 184803, "ؤال": 40054, "▁Hadamard": 228176, "▁encanta": 135285, "Mineral": 186871, "<0x70>": 350, "▁mumbai": 201365, "▁culminates": 232051, "▁WEIGHT": 161858, "▁کامیاب": 148712, "Has": 18047, "▁শুরুর": 133530, "<unused4888>": 260790, "frü": 226944, "ACA": 55879, "▁striated": 182393, "ρίες": 151494, "𒉚": 249334, "处罚": 176225, "▁latérales": 120286, "▁различными": 217146, "▁வேண்டும்": 22096, "usay": 214114, "udal": 46829, "▁Palestinians": 83992, "ക്കാം": 120887, "잉": 243379, "▁samping": 146794, "▁conversa": 153069, "▁responseObject": 216346, "returnData": 212170, "▁seguro": 43795, "▁katalog": 153491, "▁stylish": 23489, "▁표현": 104387, "genic": 42082, "resin": 217666, "canny": 216493, "▁smelling": 112668, "▁Casc": 128993, "冬季": 162121, "▁neuromuscular": 141361, "化物": 210035, "των": 59152, "⋮": 241676, "▁информации": 59775, "▁কমল": 101646, "ţ": 238419, "豹": 243101, "▁vaste": 107113, "ResponseEntity": 119334, "▁stacks": 59556, "vvvert": 218356, "▁SrvGroup": 136886, "▁saludar": 229312, "atable": 31039, "tube": 31360, "АС": 83294, "▁jū": 193569, "CustomerID": 143132, "footage": 123859, "磯": 244668, "▁койма": 100824, "▁köl": 187202, "เคล": 127713, "pants": 68741, "reachable": 140377, "▁чого": 194805, "▁ulang": 110563, "▁sfida": 174908, "产权": 180186, "houette": 23502, "ϛ": 255213, "▁pendulum": 63342, "以便": 117766, "ುವುದ": 61234, "▁যুগে": 152288, "▁काळ": 73528, "Arbit": 184970, "▁tej": 34497, "▁நன்க": 122976, "workers": 33211, "▁erkannt": 217018, "த்தது": 80156, "▁Rother": 189637, "受賞": 175008, "▁stel": 214175, "aiti": 173497, "▁更": 109198, "iesen": 57332, "Tests": 32499, "்சைடு": 157646, "▁Ausgang": 160715, "দীপ": 97490, "varande": 191489, "▁Ballot": 220976, "▁çiçek": 227609, "Cucumber": 155002, "Acc": 5475, "▁الأخ": 103763, "▁canceled": 50425, "▁परेशान": 52177, "動物": 58969, "▁outpatient": 75088, "ड़ी": 8900, "▁הנ": 86034, "<unused5004>": 260906, "▁animais": 110924, "柑": 244799, "sorting": 133126, "нов": 5155, "資格": 104818, "▁Links": 36374, "▁signifying": 192532, "$',": 121898, "▁cutter": 56998, "◻": 251989, "hetical": 51187, "▁Règles": 213281, "▁inc": 2494, "葢": 252863, "▁nouvelles": 45206, "▁Moll": 101021, "▁infek": 173799, "Lum": 213456, "▁ரசிக": 100473, "dV": 105636, "▁Niss": 220104, "▁diagrama": 157034, "방법": 178781, "りたい": 132319, "▁statusBar": 229851, "▁betrokken": 209911, "xmin": 7135, "▁justement": 195012, "सेने": 163841, "▁mobili": 135913, "▁воде": 116618, "efficacy": 149240, "さんも": 131148, "▁আফ্রিকার": 187290, "▁وإن": 149643, "<unused3164>": 259066, "avr": 194058, "▁creencias": 223269, "▁》": 114195, "Uploading": 211030, "Article": 23977, "▁fulfil": 47431, "高端": 106747, "ellae": 212507, "▁เป็น": 17555, "्वे": 52899, "▁circulated": 78348, "tx": 9715, "▁tanger": 132854, "的具体": 235723, "▁Live": 15097, "▁ausgest": 101891, "してしまう": 170654, "Type": 2328, "Sib": 143927, "ologías": 142369, "▁மணியே": 215079, "phosphate": 67983, "아": 237534, "రిక": 174488, "エンド": 171445, "▁রাহুল": 230874, "▁urm": 71712, "▁hale": 107131, "▁kullanımı": 230751, "▁Baseball": 56433, "ărul": 176764, "▁lze": 123951, "initConfig": 161140, "▁wag": 50403, "▁antennas": 87259, "unca": 82112, "▁्": 18128, "🧪": 251646, "酸化": 104310, "▁seguirá": 212007, "йд": 54210, "▁grain": 11261, "▁repatri": 121312, "कप्तान": 166590, "achar": 142832, "feder": 27404, "embers": 145398, "根": 238219, "▁deciduous": 123280, "កម្ម": 95142, "▁পিপ": 133630, "umos": 121689, "AY": 5790, "▁patents": 50123, "इट": 11672, "リティ": 73013, "Travelling": 221958, "遨": 250224, "▁vitaminas": 175871, "▁Natal": 36727, "<unused2950>": 258852, "▁Joanne": 112470, "金": 248491, "ègre": 232198, "▁தொழ": 46988, "olites": 210296, "良く": 85299, "▁১৩২২": 51420, "Informe": 161258, "emailer": 130719, "ǌ": 250001, "▁必要": 180025, "▁кою": 57924, "▁thưởng": 94488, "▁assum": 5342, "▁básicamente": 109830, "▁Dopp": 45840, "যানীর": 165401, "晠": 253615, "▁Baking": 124889, "كا": 100900, "社区": 56702, "▁Amat": 183600, "ساعد": 52158, "coach": 78230, "▁medi": 12990, "abad": 20393, "wink": 162098, "Carr": 98901, "▁Daftar": 182865, "excerpt": 150082, "Simply": 83737, "ript": 1405, "▁Neither": 40436, "側": 239467, "创立": 210499, "vant": 41509, "▁vst": 157050, "▁attrs": 71664, "▁tonight": 20564, "snippet": 143399, "▁परीक्ष": 147743, "▁NL": 51900, "Initializer": 108796, "刘": 239847, "▁प्रवासी": 162506, "peliculas": 232009, "▁towarz": 182254, "▁HAS": 65243, "▁untested": 226388, "θε": 31614, "អា": 42022, "ígeno": 178346, "▁кілька": 150368, "鼍": 251147, "arant": 8543, "factorial": 197149, "▁मीटर": 52241, "彝": 245676, "▁ಗುಣ": 183544, "▁]),": 30553, "▁citric": 114736, "ຢ": 241391, "▁interviewing": 76531, "▁تلوار": 118336, "ln": 3269, "शियम": 123009, "ியுடன்": 205933, "▁pipelines": 61708, "ЕД": 104397, "▁படங்கள்": 195823, "▁flaw": 36163, "▁पादुकोण": 146226, "常用的": 151882, "▁motiva": 191831, "ᴸ": 251428, ")}(\\": 73793, "▁Addiction": 127526, "▁kubb": 228103, "▁justa": 227210, "ász": 92652, "▁gy": 14489, "▁공격": 110926, "indazole": 220514, "▁slee": 15061, "ंसर": 19914, "akili": 223594, "သိ": 108120, "பசு": 173898, "▁<:": 221705, "▁$-": 9441, "▁trek": 40681, "Waiting": 60776, "ět": 26064, "": 255852, "▁fanciful": 168752, "▁Beers": 150322, "<unused3912>": 259814, "сову": 189252, "转身": 175381, "Passengers": 124594, "▁dagegen": 139127, "vang": 95546, "innov": 131016, "▁παν": 137495, "▁ideale": 106437, "TRANSPORT": 185484, "Trading": 145896, "▁सेब": 165629, "▁priorit": 27592, "▁estrell": 72504, "▁ứng": 35801, "▁phytochemical": 202009, "▁Reth": 176541, "?/": 219958, "モニター": 184220, "加快": 105395, "intage": 7951, "▁डिमांड": 99840, "<unused3251>": 259153, "路線": 139211, "▁フリー": 163391, "િં": 67928, "▁तत्": 45411, "▁nešto": 138760, "▁feeders": 104030, "FromFile": 31211, "BURSEMENTS": 229825, "▁denial": 44330, "▁мен": 11227, "▁'@": 12091, "▁Aron": 164864, "哈哈": 75604, "▁SwiftUI": 136672, "Ruby": 100654, "▁maq": 184401, "jaty": 200796, "▁reload": 54728, "जेश": 223182, "werke": 99789, "▁bliver": 107019, "зумі": 229669, "товых": 162008, "េ": 238361, "▁Brush": 48257, "▁delimiter": 77567, "▁Jae": 110512, "▁velocidad": 56371, "ULA": 76308, "▁instalar": 70457, "▁discrepancy": 59725, "▁conos": 58819, "▁Zn": 40992, "legisl": 224265, "fiddle": 217097, "▁lớp": 38563, "▁tasteless": 200957, "ailangan": 161259, "▁esas": 52385, "rinde": 191943, "理": 237373, "▁atteinte": 223732, "sted": 15096, "▁descom": 140553, "ificato": 135889, "慈善": 185474, "াভাব": 38301, "∉": 248709, "▁Offshore": 132276, "▁ايضا": 96234, "▁Blogger": 105660, "Around": 56954, "▁bằng": 19152, "▁SEPTEMBER": 229431, "పంచ": 130769, "▁بكم": 44415, "berto": 67323, "<unused5068>": 260970, "ទុក": 149538, "▁incomplète": 151567, "𝙾": 248488, "kowe": 141599, "▁misión": 107994, "▁fondament": 68739, "▁}}^{\\": 125240, "▁QPushButton": 170430, "норий": 102181, "Jpeg": 152419, "病例": 190145, "adhyay": 142439, "▁성공": 106950, "▁municipales": 141874, "▁Dura": 189051, "ellery": 41760, "▁clin": 6407, "به": 14909, "▁migratory": 109817, "▁EQUIP": 75695, "nX": 225265, "▁উক্ত": 90372, "tki": 233836, "▁posse": 150462, "▁गणपति": 214735, "▁Scorpio": 147824, "itoare": 173830, "ាត់": 74255, "▁चूर": 236678, "▁Coventry": 107560, "▁amendments": 32583, "usual": 77463, "▁satisf": 4519, "([": 5551, "▁ajudar": 61207, "ความเป็น": 225984, "डोर": 105180, "▁automática": 124355, "▁incluyen": 78451, "smile": 113954, "▁procuring": 122542, "npj": 126465, "▁המח": 162484, "▁Irradiation": 204154, "nál": 180846, "”，": 19601, "▁Culture": 21427, "ct": 539, "▁oublier": 174086, "éroport": 56640, "▁código": 40766, "▁Divid": 61509, "Race": 71565, "case": 4925, "▁Perimeter": 209987, "▁articulo": 186804, "<unused2760>": 258662, "Seen": 101739, "▁leach": 118915, "▁Islas": 205149, "▁Clarence": 93556, "𒀠": 250382, "❃": 251618, "shock": 71287, "塔": 240019, "руем": 144149, "Rename": 182730, "வாள": 216891, "oggetto": 188099, "▁infección": 132201, "ोदर": 215502, "Weber": 182347, "륭": 245209, "ွ": 238200, "ére": 41507, "▁commences": 141468, "▁кислоты": 195994, "Интернет": 211099, "affiche": 208283, "▁phon": 34816, "बाइक": 215640, "▁поверхности": 85536, "▁Процитовано": 68532, "▁extraction": 23680, "▁Firenze": 122115, "▁Overlay": 136066, "บร": 115376, "ण्याची": 46885, "▁ziek": 217825, "Ан": 120175, "下記": 101242, "▁::": 8807, "лла": 45126, "▁떨어": 129607, "▁counterbalance": 226423, "TaskList": 127995, "፡፡": 58622, "issement": 26240, "▁HIG": 106548, "metast": 223113, "winfx": 217878, "ruc": 214382, "▁acceptors": 190410, "ENANCE": 158757, "▁secondo": 42146, "▁croy": 135402, "▁taka": 128791, "▁miro": 230604, "▁компонентов": 186973, "ylamine": 164936, "▁تحدث": 188083, "蝶": 241950, "▁横": 111056, "▁नियम": 22930, "▁RAR": 233193, "್ಯೂ": 178513, "cable": 137341, "▁সমস্যায়": 147785, "羰": 248775, "▁Medica": 44378, "<unused4621>": 260523, "▁ಬ್ಯಾ": 224689, "ពួក": 112932, "▁Thunderbolt": 146121, "▁senza": 32060, "▁richest": 73961, "▁remake": 77257, "▁معنا": 115297, "▁Palaiseau": 109601, "वरण": 26117, "anet": 113087, "▁broth": 71072, "▁pathologist": 176480, "gling": 78681, "▁discurso": 100204, "▁อำ": 226910, "adolu": 133373, "▁poumon": 236484, "▁entsprechen": 218738, "plication": 13592, "▁cleanliness": 76049, "푚": 251233, "ianthus": 210419, "ல்லாம்": 213895, "▁தொடர்ப": 55115, "▁mejor": 13093, "▁tummy": 125577, "▁portug": 68172, "▁conceit": 233512, "េង": 103135, "<unused5382>": 261284, "谒": 250157, "▁orçamento": 236185, "ikus": 54027, "▁rendu": 106248, "<unused3979>": 259881, "▁প্রহ": 204377, "ramine": 113504, "▁Ș": 75875, "▁Chick": 84839, "ථා": 148281, "▁الشعب": 135785, "Mon": 10505, "➰": 249847, "▁ponen": 179507, "▁IPTV": 192222, "▁requestId": 146031, "計劃": 119240, "▁floods": 56062, "▁restantes": 163436, "▁merak": 193957, "▁Huge": 106521, "▁kaikki": 151757, "たっぷ": 161568, "▁Clutch": 185129, "<unused3983>": 259885, "⇆": 248840, "⎙": 254948, "日光": 215140, "▁ausges": 183107, "Cleared": 151770, "▁stylu": 172321, "▁வேல": 132718, "▁বিল্ডিং": 219762, "▁မ": 31619, "duel": 118757, "▁raw": 10445, "antz": 84104, "Ä": 239122, "▁sniping": 207927, "▁Vols": 104334, "ΜΑ": 205196, "▁CLIN": 183127, "inée": 175305, "▁energética": 194860, "汽车": 38407, "<unused4202>": 260104, "वायरमेंट": 205583, "ács": 140463, "照明": 74648, "襲": 242417, "▁variado": 197180, "▁टेक्नोलॉजी": 114119, "▁Majority": 106081, "وات": 27675, "ESCAPE": 147912, "ไอ": 161528, "加盟": 124588, "Performing": 173621, "▁gourd": 215865, "द्दी": 73338, "Doing": 121746, "▁adrenal": 68329, "ثنين": 110437, "สัง": 119355, "▁Azerbai": 62129, "▁Desire": 110338, "헷": 247017, "▁colloid": 187717, "▁رنگ": 59368, "ார்க": 151508, "richTextBox": 175508, "䄪": 255080, "▁സി": 43457, "▁preto": 78648, "Suffix": 88727, "Simple": 22575, "imidazo": 232827, "▁Drawn": 139985, "ക്ഷണ": 100650, "▁ஆண்டில்": 111009, "▁Spaniards": 144435, "▁Qxg": 61746, "дать": 47913, "elihat": 82203, "▁dg": 142537, "▁Groupon": 226324, "isks": 167290, "▁ERIC": 141532, "有两个": 170281, "▁닮": 227481, "▁Creating": 42670, "▁ඒවා": 171853, "▁caravans": 217967, "▁Tid": 108328, "▁Comparisons": 141399, "▁says": 3189, "<unused3742>": 259644, "oppositions": 196878, "▁intersection": 18074, "濩": 255102, "▁झाले": 41438, "到着": 118892, "走行": 142674, "▁Dubey": 169312, "▁prescribe": 65308, "▁bolsillo": 226936, "ᒪ": 246998, "PasswordField": 166714, "▁»": 6490, "billion": 79568, "▁eva": 85378, "▁zroz": 202781, "▁gol": 23672, "璘": 253331, "▁FRESH": 235745, "▁admins": 174431, "𝙃": 254176, "চেতন": 50367, "E": 236788, "▁Taq": 213337, "▁پی": 20691, "annotation": 10288, "▁regalos": 175147, "▁Walking": 49420, "▁cysteine": 126221, "ectic": 120720, "▁อนุ": 165978, "▁அடைய": 95755, "Visit": 38748, "▁धमकी": 111823, "栨": 254448, "histo": 97785, "▁शुक्रा": 233699, "ánea": 102689, "▁جنوب": 112083, "০০": 19411, "ੲ": 254266, "我們要": 189343, "MAY": 92952, "ীষ": 90268, "▁ย": 23474, "▁формате": 183132, "▁nights": 22998, "лян": 59811, "vasena": 115403, "しゃ": 38970, "▁calidad": 26736, "சாக": 224866, "▁checkpoint": 61077, "▁amit": 103674, "▁Jacqueline": 90446, "▁({": 21643, "桃花": 197458, "▁BLO": 126342, "widetilde": 14428, "▁_$_": 209355, "ယ်": 19318, "𝄞": 246859, "▁кат": 67430, "raz": 5355, "artig": 132578, "▁بھی": 12317, "கொ": 116879, "Fach": 217549, "▁TEXT": 3309, "ámicas": 197832, "idious": 114845, "▁vist": 91622, "वॉ": 180959, "ជ": 238525, "Nm": 74604, "psis": 90786, "<unused1382>": 257284, "▁فأ": 148842, "▁estuary": 149751, "▁শুভেচ্ছা": 145671, "극장": 231189, "▁புரிய": 185548, "▁পিত": 73991, "<unused388>": 256290, "▁Jefferson": 39357, "奮": 243165, "▁anteriores": 60769, "▁साप": 191416, "ästä": 236335, "กิจกรรม": 190979, "UnifiedTopology": 111890, "▁medicamentos": 86020, "hende": 92642, "▁मुक्त": 55754, "▁फायर": 100494, "standalone": 227188, "▁supremely": 229978, "mitting": 29133, "्याची": 187100, "▁riječi": 211255, "স্তাফ": 151601, "▁président": 59687, "▁Autism": 112317, "▁protezione": 151741, "▁lagi": 24095, "ุณ": 21722, "eli": 5812, "▁contrast": 9530, "▁abierto": 90923, "▁ক্রমে": 131715, "▁दमदार": 139126, "▁সিনেমা": 67143, "▁bencana": 226451, "▁listOf": 114631, "pector": 35807, "pill": 54640, "▁peas": 38913, "વન": 74016, "▁Scher": 148578, "перы": 149665, "▁avsl": 196812, "된": 238594, "▁schedules": 30916, "▁шокола": 171378, "▁أد": 108251, "▁Fertility": 151208, "ডের": 45852, "issa": 15332, "waitForIdleSync": 59708, "▁opcoes": 184351, "ান": 1141, "===": 22909, "鎖": 242190, "ীকার": 38007, "ैनल": 10145, "▁דו": 234034, "▁пера": 118318, "Leggi": 92800, "Allium": 221563, "▁waard": 90127, "▁'{": 43836, "enty": 6231, "▁monotonicity": 166225, "▁कहता": 86094, "▁buildFor": 84073, "brecht": 94390, "▁precipit": 136336, "▁للط": 210245, "▁Diagnose": 225658, "交换": 107791, "hue": 79612, "Shoot": 155577, "xture": 8544, "▁loosely": 69843, "发行": 101363, "▁pouches": 151005, "用": 237105, "▁видим": 171073, "▁Localization": 184404, "▁কমান্ড": 82924, "鯨": 244214, "▁プラス": 160924, "▁yummy": 94765, "▁शहरी": 112560, "InnoDB": 49076, "▁parab": 61530, "▁ajt": 157644, "论坛": 106786, "ei": 19678, "▁injectors": 153070, "σιν": 210556, "IMPLEMENT": 218276, "▁eukaryotes": 204205, "ベット": 191963, "▁Metro": 32758, "ముల": 225591, "കട": 141721, "▁SU": 15625, "frast": 9506, "▁Motif": 214388, "▁حلو": 134316, "deterministic": 222935, "Senate": 117120, "bypass": 226486, "▁juni": 50900, "Γ": 239357, "mals": 93143, "▁Those": 14212, "代价": 176604, "▁Entire": 144981, "뿡": 253373, "zyna": 205381, "▁overtook": 220501, "猫": 239959, "isem": 116205, "▁আপনাকে": 38102, "Pearson": 196682, "▁blom": 148499, "ਓ": 243363, "▁Matem": 93585, "▁ব্যক্তিত্ব": 151532, "getEstado": 143210, "ouche": 79601, "▁transmettre": 154206, "<unused5527>": 261429, "▁nobleman": 231060, "▁Danville": 225160, "chnitten": 152740, "岑": 245951, "izations": 17238, "原始内容": 63269, "terior": 9698, "▁rost": 94259, "▁včetně": 178890, "Bat": 50855, "ールの": 84408, "getQuery": 167933, "▁gatos": 139250, "ystick": 59748, "apparition": 167250, "▁isKindOfClass": 217909, "▁compost": 44166, "楼": 239582, "▁focusing": 19541, "ণ্ট": 43418, "сили": 101263, "▁在": 19729, "▁uncover": 53144, "▁الدولية": 147136, "▁INTERACTIONS": 113052, "▁प्लेटफार्म": 97465, "▁purify": 132143, "▁Cayman": 111904, "rea": 5389, "▁सेतु": 188192, "bles": 10213, "<unused4774>": 260676, "<unused4108>": 260010, "▁বন্ধুত্বপূর্ণ": 232087, "▁kraj": 63303, "▁peacock": 124738, "▁දෙ": 87736, "urum": 195336, "<unused4573>": 260475, "▁coil": 25992, "Си": 64573, "▁lysine": 151348, "▁коло": 72225, "idas": 8513, "▁lhe": 82363, "ஷா": 150229, "マンス": 114864, "▁düzey": 164709, "▁persön": 66997, "ግር": 140247, "▁Woodson": 202619, "équipe": 64648, "ÿ": 243493, "<unused6219>": 262121, "▁militant": 93567, "▁gestionar": 181375, "ıklı": 175883, "▁బ్రిటి": 120987, "▁tel": 9517, "▁tonnes": 39990, "▁المؤ": 49792, "▁вершины": 161321, "揚": 241549, "경상": 208096, "▁hect": 39011, "▁=$": 230163, "▁récente": 197500, "類似": 134391, "▁Startup": 82612, "▁americanos": 222240, "▁invalidate": 108040, "▁könnt": 122590, "хь": 97206, "▁பேர்": 80322, "▁partialX": 219822, "scanner": 70582, "▁depuis": 19478, "▁اتفاق": 95321, "ــــــــ": 159371, "▁vinho": 216642, "▁वृन्दावन": 233315, "iende": 76984, "▁функції": 128653, "ць": 14299, "addi": 91592, "▁BOOST": 144670, "ayy": 190711, "路的": 214636, "▁binoculars": 88810, "isVisible": 221210, "Redis": 62308, "kala": 156026, "iset": 63649, "ichen": 15893, "▁cowardly": 209109, "><": 1798, "ங்களாக": 180473, "▁حلقه": 165808, "▁பெண்களுக்கு": 196008, "▁newMessage": 170156, "▁Жи": 112432, "直播": 67759, "▁destruct": 117126, "罨": 255429, "猜测": 224290, "規模": 83282, "基础上": 182991, "▁tujuh": 175683, "地址": 32243, "칩": 245807, "ută": 220255, "▁Cyan": 94473, "াসেব": 153568, "Accum": 171879, "▁Я": 12596, "cami": 225494, "▁handbag": 86979, "<unused2992>": 258894, "Unhandled": 155949, "▁يص": 160881, "Lloyd": 188450, "▁करणाऱ्या": 157016, "PhaseHound": 233847, "▁Prada": 168664, "indoor": 188560, "欅": 248178, "▁OTA": 128347, "▁smiles": 45585, "촤": 254930, "<unused6009>": 261911, "▁savior": 169688, "▁usern": 129247, "kta": 236022, "▁উপসং": 236387, "▁foes": 96503, "Cultural": 111534, "▁জুড়ে": 153569, "▁enlightenment": 101699, "▁missing": 9724, "₁": 238684, "▁furnishing": 83870, "▁الاجابه": 215709, "𝟙": 253482, "lmfit": 179479, "iyim": 159101, "דו": 69707, "▁hammering": 198279, "▁Curtis": 57927, "▁necessário": 69048, "▁آخرین": 212379, "▁страхо": 125989, "锤": 243512, "équip": 128770, "новни": 13904, "▁насеље": 121805, "benar": 106768, "kunft": 88096, "▁परस्मैपदी": 215097, "▁Mario": 31743, "▁شورای": 165085, "▁offizi": 146680, "爐": 244437, "Види": 181446, "▁Acqu": 144675, "▁HG": 100326, "紵": 255202, "▁dala": 187051, "<unused1086>": 256988, "▁সম্ভবত": 73615, "和大": 210785, "gewater": 127098, "▁विस्त": 36868, "▁producir": 82980, "는데": 23430, "<unused4300>": 260202, "▁উত্তরাধিকার": 122643, "▁информа": 25037, "▁Digital": 14232, "ື້ນ": 224396, "▁Heide": 156027, "▁Tracy": 68760, "isPrime": 215401, "▁Punishment": 191409, "newsletter": 147356, "荲": 246676, "糖": 239631, "ledged": 92986, "▁scanf": 33799, "TRANSFER": 112167, "▁الجديدة": 143194, "Kalau": 174532, "hitung": 207276, "▁এটা": 19958, "▁Dream": 25391, "▁√(": 140884, "stainless": 121200, "▁اجازت": 175425, "⃛": 255569, "Fighting": 190311, "<unused5758>": 261660, "▁утвержда": 140127, "▁pickle": 39001, "رم": 12088, "Gilbert": 181852, "▁beinh": 200265, "▁DBC": 213167, "чия": 192601, "▁বিদেশি": 149963, "▁ঘুষ": 230439, "jelent": 208692, "▁propre": 47859, "bted": 49284, "▁packing": 30295, "pert": 9107, "▁новая": 140749, "ypi": 182614, "ise": 1117, "typical": 105032, "つの": 42744, "尹": 243682, "आती": 233372, "▁প্রতিক্রিয়া": 161751, "▁roman": 34900, "▁nincs": 143384, "}]": 15947, "▁tpConst": 74236, "trailer": 145876, "ссов": 79656, "imbangan": 169484, "纷": 240773, "▁LCCN": 119335, "▁Enrico": 163263, "▁lists": 15852, "避け": 235504, "abay": 93783, "▁شعر": 95401, "▁Eros": 222004, "ставля": 18328, "adne": 138662, "▁öz": 36696, "avourable": 124075, "▁stanie": 120521, "▁Spice": 98306, "($(\"#": 232741, "▁پہا": 193110, "นุ": 130775, "রিক": 17086, "etted": 77558, "────────────────": 136816, "νο": 13096, "▁instincts": 75568, "Mont": 35478, "вна": 145457, "▁प्रौ": 105992, "▁terrorists": 52877, "▁clés": 113373, "ട്ടുണ്ട്": 74992, "mij": 230322, "▁collapsing": 107477, "र्घ": 85365, "▁എന്നി": 129161, "াক্রমে": 226318, "yh": 214183, "▁invita": 170692, "risto": 156530, "凛": 244505, "▁niveau": 31118, "▁blackmail": 157570, "▁mia": 33214, "你們": 115062, "▁없이": 89551, "㢼": 253580, "▁रोजगार": 44102, "▁gamm": 124681, "מס": 171272, "▁reciproc": 90191, "しかも": 126619, "ocene": 63118, "▁MICRO": 128389, "▁लू": 91692, "▁encuent": 18141, "▁wit": 32950, "UI": 5920, "▁apertura": 96661, "▁overcrowded": 169006, "▁Statistic": 203405, "裄": 247587, "BlockUsed": 122240, "Lea": 191803, "<unused3481>": 259383, "▁tenho": 51292, "▁có": 4032, "SD": 8209, "▁BOSS": 224250, "agine": 24069, "▁VESSELS": 235383, "▁。": 4829, "▁dissociate": 229503, "Rug": 181346, "Mack": 134589, "▁watchful": 162038, "▁rutas": 117571, "▁clientèle": 187229, "$^{": 88049, "▁ಪೊಲೀಸ": 200589, "<unused1451>": 257353, "▁behandelt": 151417, "▁arbitrator": 195445, "'.'": 162499, "ições": 46139, "ukannya": 149485, "estown": 108163, "▁stycz": 111229, "，”": 142092, "▁leistungs": 220518, "लब": 15122, "audioType": 141021, "▁etiqueta": 124461, "▁ll": 15292, "▁பாக": 95134, "▁অস্থ": 70415, "▁Excellence": 52922, "合う": 102453, "▁विधायकों": 135923, "baiki": 169035, "篌": 255846, "▁송": 136334, "ModuleName": 201633, "▁bombard": 75966, "▁numérique": 88950, "▁naal": 126451, "▁श्रॉफ": 201249, "▁requerido": 235947, "drift": 179846, "▁kV": 153270, "ielen": 33971, "சால": 232569, "▁spirituality": 79574, "▁bailout": 195678, "hapsody": 198507, "ophores": 106169, "䣵": 251890, "▁refurb": 61295, "Ê": 240930, "冯": 243006, "▁commemorate": 85846, "▁প্রায়": 36508, "▁Når": 148620, "▁contradictory": 79950, "いため": 189614, "ôme": 65604, "سي": 23608, "髖": 254051, "▁sollen": 73918, "!\"": 9332, "🗣": 246645, "▁Heller": 134348, "衫": 241977, "Excelente": 217050, "▁'').": 138078, "▁irreparable": 159849, "cych": 40987, "getLocal": 215448, "ares": 4994, "⑤": 242899, "○○": 215959, "▁resultado": 24253, "▁GIFs": 188375, "▁लीटर": 106002, "頭": 238889, "illa": 5553, "那是": 124879, "<unused6044>": 261946, "atsby": 60554, "▁тұ": 161509, "▁ого": 138005, "ocup": 38573, "igated": 89499, "Transc": 182286, "`](": 36576, "▁múltipl": 177030, "▁usar": 24498, "<unused4000>": 259902, "に基づく": 188249, "currentState": 185608, "▁पुस्तकें": 187209, "<unused5757>": 261659, "▁locals": 30992, "▁gastronomy": 228183, "isc": 10608, "▁foto": 18751, "▁Tarantino": 195380, "▁ракет": 142926, "▁añadi": 155911, "cısı": 145458, "istico": 93437, "鋲": 253391, "<unused5820>": 261722, "が無": 230953, "モバイル": 210087, "Measured": 169516, "তোমার": 98634, "圣诞": 169389, "▁piş": 232482, "versicherung": 182473, "/;": 121655, "ಗೋ": 230771, "▁موتور": 173259, "erdapat": 226605, "تبع": 145491, "▁cab": 6335, "Les": 15192, "츄": 245462, "Unh": 116777, "▁Vla": 159926, "▁аку": 147950, "▁nhau": 26602, "Buf": 17160, "▁bust": 27002, "anjutan": 154045, "▁inap": 171930, "▁otros": 16536, "ΤΑ": 185436, "colours": 205019, "▁Games": 15268, "▁administrativas": 195703, "▁magnificent": 37065, "▁Zust": 79743, "▁vigilancia": 211523, "▁औ": 1384, "▁Burgos": 155593, "▁것": 10989, "▁typhoon": 224348, "▁tío": 177140, "▁பிற": 31201, "шали": 209657, "▁welded": 71985, "▁وصول": 198020, "OBJECT": 60688, "▁бъде": 92457, "ellum": 103693, "लो": 5509, "ێ": 238842, "व्यक्ति": 185203, "頩": 253734, "BIO": 154683, "点の": 171050, "▁Seg": 15553, "▁recognized": 12659, "match": 10480, "cohort": 183129, "▁एक्सेल": 170629, "▁daj": 141715, "▁Valletta": 203647, "風景": 144453, "fisher": 49833, "▁Skating": 214057, "gez": 90132, "▁достав": 81196, "▁abund": 14659, "▁ትንሽ": 208814, "ramento": 36580, "नी": 2469, "▁चूक": 200474, "solved": 166006, "オペ": 221941, "촛": 248234, "▁бас": 179649, "▁quý": 55217, "гина": 132472, "▁kepad": 226627, "敉": 251658, "ैया": 12072, "ocat": 145520, "▁XOR": 146592, "ണമെന്ന്": 213709, "▁titled": 21250, "▁राख": 115359, "▁ಅವಕಾಶ": 231749, "Caprio": 176608, "सनी": 168648, "EDanger": 163852, "<unused3484>": 259386, "નુ": 180500, "▁Falconer": 131527, "▁sicurezza": 86544, "▁favorita": 200822, "▁bicicletas": 219955, "▁Colón": 165714, "DEFIN": 103150, "getResponse": 117283, "▁Екатерина": 156981, "haturupani": 82022, "▁staat": 51890, "iamo": 13967, "rub": 29509, "▁enumerate": 29833, "▁elétrica": 128173, "▁accelerate": 36384, "濁": 244237, "▁narrowly": 75498, "▁payogo": 215122, "Zaw": 164646, "▁выбран": 150562, "▁उपयोग": 14614, "▁tosses": 235001, "Lub": 193338, "▁फैलाने": 224300, "▁विकसित": 51433, "▁preferred": 12373, "ppets": 54938, "▁impact": 4100, "Revenir": 161693, "▁chand": 112357, "▁overwhel": 18652, "ลาคม": 204969, "ঽ": 255489, "二": 237725, "Bins": 139920, "⁸": 249892, "▁साव": 58897, "leven": 215799, "▁yoktur": 185775, "ভূম": 104898, "след": 46018, "StartPreview": 208166, "linalg": 72050, "▁ഡി": 78011, "WHM": 168675, "▁மனித": 57515, "▁ischemia": 125823, "▁risult": 53744, "▁îl": 153502, "pharm": 94167, "abhave": 222909, "▁Stat": 8446, "▁extrait": 178836, "▁divergent": 80426, "▁முன்னாள்": 111972, "▁elegance": 55801, "expansive": 121298, "ն": 237802, "▁maar": 20458, "▁inquiries": 45174, "▁ƒ": 96995, "▁tabela": 103697, "▁شغل": 212816, "▁मोनो": 189883, "槭": 249859, "課程": 112347, "нар": 53329, "<unused6030>": 261932, "▁laz": 53753, "▁wenn": 15438, "Representative": 178073, "Cash": 48532, "▁উত্থ": 136017, "isati": 212570, "entes": 7407, "▁Mein": 40785, "▁производство": 116601, "ঙ্গ": 4689, "▁pouco": 42643, "▁noble": 29417, "▁richieste": 224420, "γματα": 231254, "▁microorganism": 188296, "▁sezione": 145217, "lar": 3365, "дить": 51241, "食べた": 216797, "▁tou": 9577, "▁unavoid": 79281, "▁сва": 64577, "<unused2463>": 258365, "▁टेंस": 217553, "பதி": 100913, "Ａ": 239549, "▁geom": 27729, "▁freezed": 70278, "▁خان": 35925, "pickMenu": 233929, "▁Bracken": 221684, "▁فول": 148574, "<unused5127>": 261029, "hof": 48688, "نہ": 97207, "važ": 155052, "▁Chag": 183496, "▁congé": 232675, "殃": 248239, "▁brok": 168956, "্যতা": 104857, "▁hundert": 232448, "Markup": 69781, "▁जाता": 6424, "▁привод": 171815, "apayati": 174015, "▁дверей": 235978, "▁نسل": 147901, "্যালে": 114937, "▁tercer": 70306, "challenge": 65083, "ศาสตร์": 67934, "Bc": 154706, "▁prizn": 232951, "▁Prakash": 94146, "▁complexes": 23351, "곞": 254424, "arrison": 50836, "▁সাও": 201591, "枴": 248848, "▁মাছ": 93764, "▁HRMClient": 185167, "ارو": 232736, "▁क्वेश्चन": 8053, "大全": 175427, "▁بیچ": 222447, "▁zuz": 151592, "▁TRE": 71599, "ConfigRequest": 155233, "牝": 245670, "انج": 234111, "▁jokingly": 196049, "▁berat": 89673, "▁nightly": 101758, "xie": 183689, "داول": 172100, "▁calculus": 45409, "pound": 58184, "▁বিশেষজ্ঞরা": 208865, "▁형식": 184412, "abes": 203553, "сар": 168174, "▁champignons": 208420, "▁зада": 18952, "don": 13246, "▁hot": 3425, "▁viewDidLoad": 87737, "▁funcionando": 156642, "epik": 43536, "regelen": 235160, "Deg": 37286, "▁값이": 135147, "▁spaz": 178609, "▁annum": 54224, "alar": 8247, "▁Schuh": 234476, "GetType": 126444, "meth": 40031, "▁dara": 131996, "▁gelişt": 206179, "Istituto": 143401, "▁anis": 225781, "uyến": 131034, "ibatkan": 119601, "ويه": 124568, "чиго": 91198, "▁तेरे": 82941, "▁উল্লেখ": 33767, "▁transgenic": 70814, "出发": 102429, "▁เก็บ": 185149, "▁quod": 71823, "⭑": 242739, "▁monstros": 225952, "▁सीड": 122090, "០": 241388, "▁mut": 5333, "Abandoned": 208045, "▁শিক্ষকদের": 202557, "▁ஆரோக்கிய": 100446, "▁enseñ": 53281, "▁Futuristic": 152027, "▁primero": 27305, "便是": 80528, "▁शिविर": 103229, "▁Tz": 164810, "diver": 127669, "▁meniscus": 183090, "лардын": 199809, "وتن": 213819, "栦": 253362, "odeling": 233091, "▁Salat": 208968, "▁程序": 222784, "▁Interference": 166642, "▁padx": 64932, "立马": 217149, "dumb": 71352, "ニャ": 210663, "▁%>/": 95923, "▁Caesars": 195156, "ܘܢ": 113977, "▁insan": 31737, "▁estilos": 88725, "▁honest": 11481, "▁Ud": 48770, "▁banc": 39444, "▁strollers": 220898, "▁Veneto": 177672, "▁Hussein": 116733, "▁sled": 68553, "▁consecuencia": 83649, "▁activations": 203927, "畤": 255267, "songwriter": 111939, "▁performances": 19575, "▁viability": 55233, "नेता": 175492, "ctrl": 40557, "helloworld": 173185, "▁jedin": 142809, "▁Synt": 33202, "▁Vivekananda": 62295, "▁mist": 8442, "A": 236776, "▁Balm": 174178, "🎆": 246762, "▁Visions": 224181, "面對": 180056, "zied": 224152, "崗": 245387, "▁ابي": 154529, "▁thổ": 232987, "▁বিষয়": 25561, "ｒ": 243052, "fohlen": 181545, "▁nutmeg": 166706, "cura": 81306, "▁erwartet": 152118, "▁policemen": 95139, "▁něm": 198352, "▁scolaire": 176188, "▁reversal": 51674, "▁Abend": 85839, "拠": 241817, "‌కు": 212433, "▁Marsh": 49681, "arxiv": 114033, "▁Sochi": 204191, "▁shoes": 11795, "▁الأخيرة": 181105, "▁Arabia": 32216, "▁globalization": 68366, "OURCES": 68383, "▁хуже": 216803, "IDA": 43770, "<unused2264>": 258166, "▁operações": 130140, "▁builtin": 178232, "ర్": 4590, "ரில்": 37287, "ক্ষণের": 178654, "▁Nurs": 33341, "Seats": 192141, "▁канала": 100563, "electronic": 91706, "▁Nghi": 175680, "▁engend": 176981, "▁Norwegian": 47524, "Brook": 79045, "▁মিয়া": 133214, "▁минуты": 205657, "▁borrows": 200391, "▁ελλην": 177019, "▁ইহাই": 228859, "⛓": 249523, "ख्त": 91752, "▁sentence": 13315, "▁साकार": 155275, "munition": 58271, "मित्व": 167572, "тового": 187903, "녜": 253904, "▁FTP": 87147, "▁mannitol": 224183, "Timothy": 195894, "▁dokon": 110665, "依": 238645, "ాల్సిన": 223189, "▁CER": 73178, "▁wg": 107581, "genomes": 222532, "ŭ": 240301, "▁vélo": 136713, "phosphat": 205022, "stä": 57700, "metik": 179833, "▁ইহাতে": 113915, "▁шпански": 122520, "▁skil": 100539, "効果": 40829, "▁decision": 4893, "▁anggaran": 214142, "▁Ceb": 224971, "বাদী": 122647, "▁moieties": 221867, "▁users": 5089, "▁envisage": 148906, "▁அமிலம்": 148087, "ValueOf": 174255, "▁Fahr": 39535, "escent": 80749, "}}^{*}\\": 137595, "▁grad": 4297, "镖": 245176, "▁Fb": 209549, "সময়": 100017, "▁belir": 70867, "▁disarmament": 197548, "▁অপারে": 152211, "▁fundada": 196434, "▁laughter": 47658, "▁следует": 54375, "դ": 239622, "▁podemos": 23728, "▁planer": 151825, "▁কবর": 213323, "▁PREVENTION": 204537, "স্পতি": 68802, "эрэг": 187115, "bounds": 33618, "▁Columbia": 18693, "▁CL": 9837, "ぶ": 239140, "एंड": 159597, "upiter": 35860, "安静": 160781, "▁Springer": 33370, "▁laver": 206493, "麻烦": 100142, "boats": 57876, "跶": 253827, "▁Monroe": 59869, "ానని": 231252, "▁WILD": 193574, "▁kapital": 138429, "▁потому": 42191, "": 246888, "徎": 255745, "▁Olímpicos": 212874, "FINISHED": 159781, "ани": 165962, "▁wijze": 218152, "𒐸": 255620, "Ак": 140373, "▁توجه": 68326, "▁gevolg": 215463, "モニ": 101222, "éry": 146206, "reson": 233709, "⭐️": 105503, "▁моём": 229965, "AppendLine": 210191, "诊断": 147123, "ிட்டு": 82031, "▁bote": 222751, "<unused5837>": 261739, "溆": 255639, "▁kahi": 149501, "▁Сегодня": 57722, "▁hechas": 199647, "ભગ": 200425, "有機": 154333, "irat": 84719, "▁ആക": 166946, "<unused6>": 12, "ถ่าย": 121202, "<0x16>": 260, "நாயகம்": 187413, "▁fix": 7562, "üller": 54676, "▁attracting": 48821, "▁উপকৃত": 233926, "▁destruction": 21404, "▁incid": 64945, "artis": 144749, "▁Uniwers": 216557, "Corporate": 96708, "最佳": 53670, "▁vody": 145037, "▁palms": 71504, "Ding": 200842, ")&=": 147156, "сное": 181915, "▁शुभारंभ": 156515, "▁perine": 209952, "ালো": 13193, "CSV": 53445, "eria": 9695, "वू": 158334, "更快": 185024, "▁band": 4918, "▁portfolios": 70729, "▁professora": 83989, "▁appreciating": 140888, "▁Quarterly": 63919, "▁MainActivity": 56881, "置き": 93919, "выя": 74570, "tect": 69175, "Laws": 185575, "vw": 41435, "boo": 154775, "▁कैम": 52504, "raq": 136289, "▁ऑब्जेक्ट": 189818, "▁অর্ধ": 84712, "▁Hartmann": 106963, "▁december": 45300, "▁कोरबा": 231604, "▁employee": 9470, "▁Margherita": 207128, "hoff": 47210, "ąć": 97138, "Readers": 162335, "▁proxies": 109000, "▁வன": 129996, "지만": 21946, "응": 240518, "▁hongos": 216146, "शोर": 57699, "fileupload": 175361, "▁तीनों": 64654, "टाइम": 100253, "▁luxuries": 168696, "▁collectif": 205176, "▁நன்மை": 183334, "WAB": 220755, "දී": 74307, "<unused2633>": 258535, "<unused416>": 256318, "hind": 25444, "▁कुनै": 169311, "▁Diageo": 203923, "<unused3313>": 259215, "▁возник": 77522, "▁Fibre": 137984, "▁piazza": 130024, "▁принима": 53497, "▁дол": 13426, "专利": 135726, "odoris": 136006, "Configs": 91429, "▁แจ": 199522, "awi": 31418, "▁نیر": 222748, "▁systèmes": 80883, "▁infiltration": 76152, "▁کد": 104886, "▁inflated": 87883, "ẳ": 239246, "شود": 49570, "▁LK": 144505, "endium": 123074, "▁inquire": 68256, "嬲": 252576, "▁औषधि": 108459, "<unused2117>": 258019, "pra": 56842, "াল": 2333, "▁multiplicity": 65468, "▁rifer": 60617, "▁بب": 97479, "▁يت": 38239, "▁charity": 21811, "Surface": 34727, "▁চর্": 153769, "▁chas": 157755, "férences": 48910, "▁evils": 91907, "▁Ihres": 118942, "▁KM": 48878, "omethyl": 59385, "▁дает": 107679, "curses": 166229, "▁주목": 220860, "▁testaceis": 182843, "࿐": 253653, "兄弟": 68109, "贰百": 102411, "▁Scand": 99753, "▁हटा": 35219, "▁with": 607, "戻": 240754, "Глав": 139801, "hita": 224578, "▁তৃণ": 169441, "▁superfície": 144721, "깅": 246489, "▁check": 2426, "<unused3182>": 259084, "ন্‌": 72151, "▁Questi": 150878, "トラブル": 181349, "Kos": 130836, "▁penetrated": 119788, "𝗖": 248953, "途": 239535, "oplanes": 204755, "▁Senhor": 93199, "▁JSX": 172143, "▁grandparent": 217378, "ڈ": 237700, "ोष": 22462, "▁pegs": 152509, "concerned": 212711, "▁vaccinated": 42127, "▁যাতে": 40438, "▁керів": 166709, "Fundamentals": 213847, "𝓬": 253214, "▁Nj": 102524, "\t\t\t\t\t\t\t\t\t\t\t\t\t\t\t\t\t\t\t\t\t\t": 255989, "▁dilat": 54532, "PIRE": 103227, "▁elegido": 126850, "▁পত্রিকাটি": 231096, "卒業": 89013, "값이": 123959, "▁éventuellement": 212159, "▁меди": 35061, "▁Kuznet": 225098, "<unused246>": 256148, "▁duduk": 130284, "▁neutralizing": 140436, "скае": 232456, "▁Congress": 9687, "movies": 44169, "癒": 242693, "▁workmen": 93866, "]::": 198767, "▁LUM": 112811, "arbit": 119739, "▁மூன்று": 91224, "뉴스": 182157, "oC": 214345, "▁Canucks": 185875, "这款": 88168, "綦": 253815, "товар": 232201, "▁সঠিকভাবে": 171927, "▁sincer": 42223, "▁Libertad": 203377, "▁لو": 14130, "襖": 251842, "▁japonés": 222393, "▁sano": 109660, "▁proclaiming": 171233, "▁golpe": 76384, "▁optomet": 227717, "▁оки": 218565, "贏": 243754, "▁Lockwood": 172439, "▁supporters": 25368, "িনি": 4777, "סת": 154440, "▁हायर": 159013, "▁গল্প": 48338, "▁almacenamiento": 98604, "▁Moto": 55551, "▁valet": 143583, "szág": 137386, "Recover": 75111, "क्रमा": 112308, "চনা": 16571, "▁liefern": 216229, "▁thrombosis": 110604, "usun": 102532, "Vienna": 196442, "▁международ": 63061, "▁lowering": 40689, "araja": 140183, "▁PSA": 86848, "Bian": 208854, "▁champions": 36665, "▁நிலைய": 42156, "▁Dier": 225678, "叕": 254279, "电视剧": 128920, "olution": 2988, "FunctionName": 202423, "▁死": 180328, "▁Recogn": 45962, "Acting": 179406, "▁gült": 218946, "的思想": 228474, "डिया": 85880, "oubt": 26359, "ΐ": 244701, "▁Оба": 228880, "▁Polytechnic": 96972, "▁Cran": 65155, "▁завтра": 113219, "ಲ್ಲ": 7514, "ienced": 51244, "▁ভারতের": 22085, "চয়": 187160, "▁zählt": 186041, "▁bahwa": 22787, "Kam": 68062, "▁OVA": 129551, "晧": 250343, "lL": 95635, "▁switched": 33834, "▁ओह": 236276, "▁mow": 212639, "nega": 88663, "}),": 13250, "▁উঠবে": 176017, "▁থাকবেন": 119286, "▁ವಿದ್ಯ": 160862, "▁sod": 13081, "▁resil": 25043, "▁kunnen": 32037, "▁Originally": 59890, "んだけど": 140293, "▁haue": 144570, "▁అరుణ": 160750, "▁Racing": 26587, "▁testis": 189781, "Ů": 246595, "▁certainement": 137639, "Гц": 188583, "стаў": 120947, "vectors": 46236, "▁SNP": 71862, "▁되고": 124015, "🌯": 251873, "▁homme": 48551, "▁widers": 227333, "ListItemIcon": 175355, "▥": 255962, "ői": 231496, "closure": 15085, "▁ሃ": 212233, "tà": 48742, "lik": 6578, "宇宙": 70828, "▁കമ്മി": 224125, "▁स्नातक": 111768, "⾏": 252017, "ωνα": 130112, "▁Zor": 155598, "сцю": 173329, "▁задания": 123171, "Exclude": 180087, "جواب": 113151, "▁قوم": 70648, "<unused3123>": 259025, "<unused5977>": 261879, "▁Cori": 146066, "katore": 193793, "▁Америка": 141799, "▁आस": 14821, "accordion": 52354, "▁Kog": 195277, "Factor": 35231, "▁Erie": 74605, "يش": 47947, "▁आँखों": 134467, "▁Apprentice": 160144, "▁Edel": 102334, ")</": 14386, "वेयर": 80350, "▁ويت": 189881, "حن": 101280, "▁hoisted": 159293, "▁theories": 21530, "⟶": 243919, "▁Tempo": 104822, "passing": 142774, "orche": 137073, "木の": 224120, "▁महा": 13913, "▁waardoor": 124896, "▁dépasse": 169485, "olidated": 79392, "స్తున్నాయి": 231958, "▁मेहमान": 195772, "Study": 51462, "▁znak": 75974, "GOOGLE": 202927, "▁bande": 54577, "▁Proposed": 70884, "▁suspected": 30254, "મના": 109440, "▁SOFTWARE": 44293, "曙": 245763, "都要": 72681, "▁শব্দ": 41163, "Addressing": 133836, "▁grava": 229949, "▁ഏ": 36232, "とても": 49056, "▁உத்தர": 105582, "▁passage": 16622, "jgamma": 185604, "▁Herb": 94025, "▁journals": 41341, "▁fertilized": 150013, "▁கூறு": 91176, "▁Mahi": 228143, "လုံး": 108209, "▁against": 2342, "▁rev": 5437, "▁indications": 43901, "▁ইনি": 76027, "▁Gesund": 78164, "roz": 27244, "▁ecmaVersion": 233759, "bergh": 141435, "▁providing": 6655, "<unused87>": 93, "▁প্রস্ত": 25899, "▁от": 2990, "EP": 13237, "<unused5463>": 261365, "▁Lyman": 146900, "▁genealog": 169005, "ʻ": 238487, "stahl": 168741, "▁সির": 50298, "▁철": 104964, "msub": 4390, "▁cemeteries": 173271, "IDAY": 114256, "▁tentang": 19758, "娣": 248519, "aliases": 125757, "▁apologizing": 236576, "更": 237611, "Ivo": 161032, "वाले": 90572, "ган": 25542, "▁Menteri": 137902, "▁capitalize": 63740, "haltens": 212380, "▁여기서": 120036, "quisitos": 208015, "▁ambas": 72120, "▁образ": 68261, "രുടെയും": 155477, "▁bombers": 131807, "ができる": 114109, "▁отвер": 112504, "▁entidades": 81634, "▁aste": 163605, "Moves": 102237, "▁chiamato": 146511, "rifice": 26753, "▁clima": 68837, "duty": 57684, "▁Cape": 22807, "▁الاب": 76359, "প্তাহ": 33458, "genCode": 179719, "▁Angelo": 95805, "HINSTANCE": 150095, "pans": 211175, "parents": 33059, "尝试": 66019, "duire": 201846, "▁sabato": 189428, "▁rent": 7801, "▁Uncertain": 101768, "▁irritation": 55536, "▁reaksi": 138894, "▁adidas": 44117, "▁trio": 44276, "ᡧ": 255565, "▁pegatina": 224797, "чатки": 202780, "Asia": 53601, "▁ouder": 233180, "▁fiume": 168890, "pekte": 200622, "èges": 225454, "▁Raven": 68773, "▯": 249284, "ủ": 237417, "▁خراب": 214051, "انيه": 40655, "🐣": 247380, "ankan": 38286, "▁alas": 76897, "▁br": 1615, "दया": 94551, "淘": 241349, "▁pav": 23059, "ड्ड": 68351, "▁RMA": 234199, "▁substituents": 133483, "CAPT": 134327, "dispatch": 33354, "צב": 196472, "ফটেন": 199547, "lni": 155783, "▁zert": 142633, "▁spicy": 44018, "file": 2164, "▁महिन्यात": 212918, "▁veal": 200002, "▁Heming": 123445, "бок": 80959, "สรร": 162032, "▁interessante": 74973, "吁": 243996, "ดา": 87502, "▁hautes": 185068, "▁Aragón": 204151, "饭": 240409, "▁kênh": 83875, "▁volcano": 50307, "뭐": 239557, "സ്ത": 85343, "𒆹": 250526, "ര്‍ച്ച": 177613, "▁rebirth": 136922, "▁করতো": 166420, "▁synd": 17455, "▁Gerr": 99648, "▁মাই": 65348, "Equity": 141242, "▁하지만": 79143, "▁земель": 180397, "▁प्रतिनिधियों": 180661,
[...]
